<unk>	0
<s>	0
</s>	0
<NEW_LINE>	0
<INDENT>	0
<DEDENT>	0
▁	-1.41688
_	-2.77438
.	-2.98203
(	-3.47342
,	-3.77805
▁=	-4.0416
)	-4.18907
▁self	-4.50337
:	-4.51755
self	-4.53912
):	-4.80595
=	-4.82155
n	-4.9549
▁def	-5.02682
▁#	-5.2916
s	-5.29542
▁if	-5.3269
()	-5.47507
▁return	-5.48236
\	-5.53845
▁in	-5.6254
[	-5.64052
▁the	-5.6631
name	-5.67885
get	-5.75502
▁'	-5.80099
▁for	-5.83956
-	-5.85568
data	-5.91314
▁"	-5.93803
id	-5.95535
x	-5.98073
"	-6.12556
]	-6.13087
',	-6.13672
'	-6.15051
/	-6.23103
▁is	-6.26966
("	-6.28554
▁\'	-6.3155
('	-6.32224
▁+	-6.37318
▁==	-6.383
▁not	-6.38971
\'	-6.40846
▁to	-6.41221
path	-6.42823
",	-6.45442
2	-6.46757
type	-6.47638
i	-6.48307
list	-6.49586
))	-6.50727
▁a	-6.51412
▁of	-6.52749
▁None	-6.52908
d	-6.56064
file	-6.56287
1	-6.57979
")	-6.58282
')	-6.60461
▁and	-6.63371
▁else	-6.66129
\',	-6.68166
['	-6.69634
▁%	-6.72053
a	-6.72848
None	-6.74074
set	-6.74427
':	-6.74893
key	-6.76105
init	-6.76377
r	-6.7797
▁test	-6.78189
t	-6.79143
value	-6.79403
(\'	-6.82384
__(	-6.85837
True	-6.86201
to	-6.88862
▁@	-6.9055
▁class	-6.91905
e	-6.92876
args	-6.92922
b	-6.93986
[\'	-6.96254
y	-6.96886
size	-7.01562
user	-7.02356
url	-7.03317
▁*	-7.04624
format	-7.05438
add	-7.07759
\')	-7.08195
str	-7.08422
text	-7.10394
time	-7.11846
append	-7.12688
dict	-7.12905
▁with	-7.13014
test	-7.13775
assertEqual	-7.14495
▁print	-7.15002
),	-7.15148
c	-7.15612
▁assert	-7.1572
":	-7.16709
.\	-7.16927
f	-7.17772
']	-7.21425
\':	-7.22794
kwargs	-7.23184
config	-7.2428
index	-7.26368
request	-7.2642
p	-7.27429
["	-7.29437
is	-7.31358
False	-7.31568
▁as	-7.34898
▁0	-7.35749
▁or	-7.36058
='	-7.36674
info	-7.36831
\']	-7.38177
create	-7.42868
▁np	-7.4318
▁be	-7.43622
v	-7.44222
state	-7.44336
▁raise	-7.46727
3	-7.46931
len	-7.47432
param	-7.48008
m	-7.48201
▁[]	-7.50881
="	-7.51525
▁**	-7.51686
status	-7.53677
params	-7.5424
json	-7.54492
▁elif	-7.54996
client	-7.55258
class	-7.56122
model	-7.56511
code	-7.56877
update	-7.58676
▁len	-7.58908
error	-7.59588
▁+=	-7.59616
max	-7.59813
in	-7.59979
object	-7.62062
*	-7.65073
w	-7.65181
count	-7.65186
▁try	-7.65305
▁False	-7.65579
▁from	-7.6666
▁except	-7.67407
int	-7.67489
\\	-7.6843
num	-7.68571
u	-7.6861
start	-7.6882
])	-7.69272
shape	-7.69555
node	-7.7027
▁{	-7.70595
h	-7.71355
▁"""	-7.71476
array	-7.71873
▁result	-7.72082
▁True	-7.72373
S	-7.73211
k	-7.7355
`	-7.73727
image	-7.74481
"]	-7.75298
():	-7.7531
from	-7.75363
all	-7.75364
▁str	-7.75446
join	-7.7613
X	-7.76253
response	-7.76475
input	-7.76623
0	-7.76827
dir	-7.76927
date	-7.76956
item	-7.78356
▁value	-7.78644
▁that	-7.79119
group	-7.79437
db	-7.79549
result	-7.80376
g	-7.8056
write	-7.81416
())	-7.8182
label	-7.81876
A	-7.82057
.__	-7.82167
▁range	-7.83082
log	-7.83232
output	-7.83577
read	-7.84717
▁os	-7.85196
▁this	-7.85259
new	-7.8557
line	-7.85625
obj	-7.85735
message	-7.86218
[0]	-7.86258
▁1	-7.86598
content	-7.87243
▁new	-7.87778
▁i	-7.87932
}	-7.88184
string	-7.88442
1,	-7.88548
np	-7.88882
api	-7.89914
l	-7.90277
context	-7.90371
=\'	-7.91394
▁super	-7.92344
length	-7.92546
app	-7.93021
title	-7.96701
▁{}	-7.97069
table	-7.97789
version	-7.98017
objects	-7.98443
filter	-7.98606
return	-7.9867
session	-8.00028
by	-8.0046
default	-8.00889
values	-8.00919
on	-8.01051
j	-8.01743
out	-8.02347
map	-8.0245
▁<	-8.02879
C	-8.03143
D	-8.03441
token	-8.03797
],	-8.04366
z	-8.04421
split	-8.04984
▁!=	-8.05908
o	-8.06601
4	-8.08649
run	-8.08694
with	-8.08941
▁on	-8.09926
▁int	-8.09936
:\	-8.09947
query	-8.10212
▁>	-8.10631
Error	-8.11129
os	-8.11258
items	-8.11675
▁it	-8.11947
▁are	-8.1263
▁response	-8.12679
save	-8.1282
T	-8.12826
▁The	-8.13047
check	-8.14001
▁an	-8.14679
▁isinstance	-8.15128
load	-8.15954
%	-8.16475
List	-8.16549
▁f	-8.16568
root	-8.16814
val	-8.16958
end	-8.17251
pos	-8.17467
find	-8.18062
▁pass	-8.18713
field	-8.1917
▁y	-8.20442
B	-8.20789
delete	-8.21266
event	-8.21856
assert	-8.22048
post	-8.22164
+	-8.2239
port	-8.22759
row	-8.22934
base	-8.22953
5	-8.2354
▁p	-8.23604
ing	-8.23627
train	-8.2389
filename	-8.24304
view	-8.24543
▁request	-8.24713
no	-8.24961
for	-8.25215
msg	-8.25438
property	-8.25863
cls	-8.26826
▁model	-8.27018
call	-8.27527
tag	-8.27862
settings	-8.28097
target	-8.29001
keys	-8.29136
Type	-8.29531
width	-8.29744
float	-8.298
ID	-8.29943
N	-8.31157
form	-8.31353
current	-8.31598
▁user	-8.317
page	-8.31745
html	-8.31816
min	-8.31845
func	-8.31889
▁0:	-8.31999
number	-8.32204
or	-8.33657
Name	-8.34502
ed	-8.34713
source	-8.35231
(),	-8.35516
q	-8.35623
project	-8.3594
template	-8.36082
mock	-8.37054
search	-8.37101
▁we	-8.3731
email	-8.37409
▁0,	-8.37627
host	-8.38204
username	-8.38683
of	-8.38848
▁all	-8.39531
(0,	-8.39538
py	-8.40532
([	-8.40552
2.	-8.41378
action	-8.41378
I	-8.41444
M	-8.42066
idx	-8.43757
http	-8.43937
var	-8.44022
debug	-8.44024
▁will	-8.44331
Y	-8.44632
instance	-8.44685
method	-8.44718
▁c	-8.44755
P	-8.44844
models	-8.44882
://	-8.44951
▁->	-8.45313
▁line	-8.45454
parent	-8.4589
2,	-8.46239
names	-8.46274
parse	-8.47409
fields	-8.47416
sum	-8.47815
batch	-8.4824
password	-8.48292
address	-8.484
F	-8.48528
next	-8.48596
random	-8.48708
Data	-8.49445
frame	-8.50592
▁tf	-8.50614
op	-8.50649
remove	-8.50695
env	-8.50845
last	-8.51286
▁output	-8.51671
L	-8.51706
color	-8.51962
send	-8.52197
cache	-8.5225
[1]	-8.52398
close	-8.52486
ids	-8.52567
options	-8.52782
▁}	-8.52983
left	-8.53267
mode	-8.53447
})	-8.53693
order	-8.53862
service	-8.54131
server	-8.54418
com	-8.54446
▁{'	-8.54726
▁default	-8.54767
level	-8.54844
▁while	-8.54962
>	-8.55015
'])	-8.55224
as	-8.55303
▁import	-8.55374
command	-8.55544
▁models	-8.57185
body	-8.57186
▁1)	-8.57407
img	-8.57699
▁item	-8.57811
@	-8.57925
Test	-8.58307
res	-8.58423
R	-8.58519
re	-8.58878
print	-8.59197
height	-8.59239
▁by	-8.59589
▁expected	-8.59988
'],	-8.59989
and	-8.60977
1.	-8.61069
files	-8.61176
show	-8.61487
copy	-8.62557
task	-8.62656
sub	-8.62685
▁open	-8.6298
▁v	-8.63332
first	-8.63396
H	-8.63411
E	-8.63765
link	-8.63897
range	-8.64205
ip	-8.64323
not	-8.64339
open	-8.66215
G	-8.66256
▁res	-8.66637
df	-8.66705
▁can	-8.67661
▁context	-8.68289
▁out	-8.68507
ref	-8.68603
block	-8.68926
auth	-8.69118
score	-8.69434
Model	-8.69899
▁input	-8.70132
▁`	-8.70197
module	-8.70252
▁1,	-8.71419
▁should	-8.71677
▁use	-8.71697
location	-8.72336
▁node	-8.72347
▁other	-8.72513
assertTrue	-8.72621
word	-8.73429
V	-8.73499
types	-8.74088
8	-8.74591
▁If	-8.7464
er	-8.74689
patch	-8.74752
File	-8.74767
utils	-8.7541
datetime	-8.75439
match	-8.75658
replace	-8.75713
W	-8.759
;	-8.76678
▁max	-8.76793
▁function	-8.76986
dim	-8.77198
).__	-8.77255
loss	-8.7732
header	-8.7753
grid	-8.77531
mask	-8.77697
meta	-8.77705
headers	-8.77834
at	-8.77954
``	-8.78237
description	-8.78326
one	-8.78662
exists	-8.78749
6	-8.78896
device	-8.79218
'),	-8.79687
argument	-8.79974
column	-8.80211
step	-8.80411
col	-8.8051
prefix	-8.80741
>>>	-8.80832
Exception	-8.8087
1)	-8.80901
Id	-8.81028
▁have	-8.81031
(1,	-8.81167
2)	-8.81184
▁mock	-8.81376
cmd	-8.81519
----------------	-8.81601
foo	-8.81825
▁current	-8.81954
connect	-8.81997
################	-8.82187
login	-8.824
nodes	-8.82407
layer	-8.82558
build	-8.82648
lambda	-8.82946
element	-8.83635
execute	-8.83808
mean	-8.84612
▁A	-8.85239
tf	-8.85305
▁ValueError	-8.85307
spec	-8.85466
resource	-8.85742
total	-8.85764
account	-8.85826
pop	-8.85921
▁method	-8.86019
valid	-8.86053
net	-8.86524
▁re	-8.86737
(*	-8.8682
results	-8.86828
hash	-8.86875
▁has	-8.86886
make	-8.86901
attr	-8.87219
window	-8.87426
store	-8.88299
logger	-8.88632
[0],	-8.89295
function	-8.89407
bar	-8.89411
equal	-8.90353
queue	-8.90377
point	-8.90787
handler	-8.90822
\'])	-8.91087
▁check	-8.91098
position	-8.91208
box	-8.91389
right	-8.91862
▁0)	-8.91957
active	-8.92314
Base	-8.92439
▁event	-8.92668
if	-8.92703
parameters	-8.92837
▁number	-8.92897
strip	-8.93039
has	-8.93256
▁message	-8.93404
▁m	-8.93672
Q	-8.93758
7	-8.93788
lower	-8.93903
?	-8.94089
arg	-8.94232
▁which	-8.94586
matrix	-8.94626
select	-8.9502
conf	-8.95273
domain	-8.95308
▁used	-8.95347
graph	-8.95444
doc	-8.95585
User	-8.95672
Set	-8.96136
xml	-8.96414
rate	-8.96683
conv	-8.96724
▁yield	-8.96908
▁k	-8.97169
admin	-8.97367
display	-8.97501
raw	-8.97764
▁continue	-8.98342
▁msg	-8.98396
per	-8.98491
▁This	-8.98587
tags	-8.98763
][	-8.98823
▁start	-8.98988
Node	-8.99072
\'],	-8.991
entry	-8.99132
called	-8.99319
▁field	-8.99397
tree	-8.99561
now	-8.99604
▁target	-8.99884
▁Test	-8.99888
▁db	-8.99946
fn	-8.99976
▁must	-9.00115
weight	-9.00471
features	-9.00547
labels	-9.00598
▁instance	-9.00619
<	-9.00821
K	-9.00907
▁1:	-9.01264
offset	-9.01535
button	-9.01663
▁when	-9.01689
product	-9.01775
pk	-9.01882
process	-9.01992
uuid	-9.02246
To	-9.02455
auto	-9.02539
sample	-9.02609
▁row	-9.02619
access	-9.02693
▁obj	-9.02738
▁image	-9.0281
▁each	-9.02864
stack	-9.03048
|	-9.03424
player	-9.03844
'))	-9.03862
▁object	-9.04013
profile	-9.04599
lines	-9.04657
parser	-9.04916
metadata	-9.04955
▁string	-9.05045
▁num	-9.05056
txt	-9.05193
plot	-9.05419
iter	-9.05682
)\	-9.05783
▁given	-9.05798
▁values	-9.06109
▁one	-9.0623
temp	-9.06456
pool	-9.06559
true	-9.06669
local	-9.06714
connection	-9.06731
▁ret	-9.0677
)]	-9.06833
sort	-9.06975
csv	-9.07033
▁end	-9.07034
volume	-9.07409
channel	-9.08066
▁u	-9.08245
my	-9.08462
▁{\'	-9.08592
lib	-9.0887
widget	-9.09014
▁logger	-9.09037
▁cls	-9.09393
▁{"	-9.09449
0,	-9.09453
No	-9.09529
main	-9.09757
network	-9.09963
▁parser	-9.10062
encode	-9.10112
decode	-9.10126
manager	-9.10259
▁break	-9.10515
points	-9.10545
images	-9.1087
Get	-9.10905
src	-9.10957
)))	-9.11055
timeout	-9.11653
[0].	-9.1169
job	-9.11783
[0])	-9.12095
▁>=	-9.1214
▁no	-9.12215
String	-9.12269
required	-9.12269
"))	-9.12285
handle	-9.12339
seq	-9.12403
use	-9.12532
{	-9.12738
utf	-9.12855
register	-9.12932
Path	-9.13273
dtype	-9.13478
other	-9.13534
▁at	-9.1354
axis	-9.1357
▁Exception	-9.13582
▁only	-9.13823
▁float	-9.14086
▁log	-9.14402
"],	-9.14438
folder	-9.14494
bytes	-9.14559
stop	-9.14586
scale	-9.14632
Value	-9.14941
▁plt	-9.15026
▁<=	-9.1515
Z	-9.15293
example	-9.15369
category	-9.1541
stream	-9.15997
es	-9.16099
TestCase	-9.16419
record	-9.16731
▁l	-9.16753
exception	-9.16841
▁form	-9.16906
up	-9.17093
exit	-9.17229
inputs	-9.17309
POST	-9.17599
move	-9.18045
Image	-9.18252
https	-9.18282
dataset	-9.1844
stats	-9.18584
▁first	-9.18667
year	-9.19115
uri	-9.19199
classmethod	-9.19665
scope	-9.19856
"""	-9.20252
users	-9.20368
insert	-9.20405
URL	-9.20448
▁help	-9.20601
driver	-9.20692
game	-9.20912
:`	-9.2113
▁logging	-9.21193
only	-9.21356
repr	-9.21591
route	-9.21707
application	-9.21867
▁found	-9.21931
top	-9.22015
staticmethod	-9.22033
do	-9.22092
unit	-9.22093
(1)	-9.22163
child	-9.22517
#	-9.22574
\'),	-9.22579
ly	-9.22662
Field	-9.22765
expected	-9.22942
stdout	-9.23144
board	-9.2356
▁``	-9.23613
zeros	-9.23642
classes	-9.23749
option	-9.23762
schema	-9.23959
buffer	-9.24122
nReturns	-9.24234
char	-9.24482
groups	-9.24747
▁sys	-9.25007
▁|	-9.25068
Text	-9.25245
wait	-9.25356
loc	-9.25822
"])	-9.2583
gen	-9.25832
price	-9.25968
callback	-9.26061
limit	-9.26167
io	-9.26223
conn	-9.26255
▁action	-9.26479
req	-9.26895
full	-9.26902
empty	-9.26921
tensor	-9.27093
layers	-9.27549
▁so	-9.27616
success	-9.2765
properties	-9.27903
Item	-9.28244
▁query	-9.28266
tmp	-9.28609
space	-9.28682
org	-9.28784
dist	-9.29082
assertRaises	-9.29183
rect	-9.2925
▁do	-9.2927
able	-9.29774
▁parent	-9.29806
Request	-9.29818
render	-9.29922
CharField	-9.29948
columns	-9.30098
Object	-9.30265
▁dtype	-9.311
"),	-9.31154
[:,	-9.31647
GET	-9.31697
change	-9.31925
samples	-9.32164
commit	-9.32176
timestamp	-9.32182
Event	-9.32295
In	-9.32441
reset	-9.32635
▁fields	-9.32734
O	-9.32853
site	-9.32874
cell	-9.33013
put	-9.33084
channels	-9.33155
Dict	-9.33175
▁--	-9.33188
en	-9.33214
un	-9.33243
The	-9.33499
indices	-9.33553
head	-9.33642
=1,	-9.33711
day	-9.33815
Key	-9.33828
policy	-9.339
▁results	-9.33967
▁make	-9.33997
arr	-9.34025
validate	-9.34073
▁run	-9.34207
9	-9.34692
repo	-9.35027
python	-9.35345
sys	-9.35811
▁any	-9.36077
diff	-9.36183
sleep	-9.36192
▁enumerate	-9.36249
▁j	-9.36338
▁you	-9.36615
errors	-9.3662
=1)	-9.36622
fit	-9.36643
Config	-9.3707
(0)	-9.37188
Info	-9.3725
center	-9.3725
exp	-9.37291
▁bool	-9.37307
norm	-9.37333
Time	-9.3779
clear	-9.37924
64	-9.3793
storage	-9.38033
U	-9.38238
script	-9.38741
sql	-9.38909
▁into	-9.38929
cursor	-9.39113
core	-9.39244
st	-9.3946
edit	-9.39515
addr	-9.39551
children	-9.39652
transform	-9.39938
'):	-9.40109
State	-9.40705
system	-9.40727
=0,	-9.40822
directory	-9.4084
▁but	-9.4106
▁command	-9.41122
weights	-9.41142
▁2,	-9.41255
},	-9.41261
bin	-9.41419
menu	-9.41433
32	-9.41584
feature	-9.41623
Form	-9.41971
eq	-9.42369
pytest	-9.42478
dot	-9.42571
reg	-9.42646
ch	-9.43524
10	-9.43653
old	-9.43753
▁using	-9.44003
▁last	-9.44003
err	-9.44027
agent	-9.44068
▁next	-9.4492
draw	-9.4497
setup	-9.45152
▁global	-9.45272
▁was	-9.45651
click	-9.45894
=[	-9.46031
dev	-9.46355
attrs	-9.4648
]:	-9.46543
mark	-9.47437
ts	-9.4758
']['	-9.47602
actions	-9.47717
variable	-9.47746
rows	-9.47842
raises	-9.48059
eval	-9.48361
▁del	-9.48802
socket	-9.48873
side	-9.49152
report	-9.49319
pi	-9.49359
▁tuple	-9.49423
ui	-9.49542
Message	-9.49717
bool	-9.50022
Group	-9.50114
."""	-9.50128
Client	-9.50256
attribute	-9.50389
▁hasattr	-9.50484
Index	-9.50539
comment	-9.50623
▁""	-9.50916
ctx	-9.51002
plugin	-9.51103
▁match	-9.51211
pack	-9.51264
extract	-9.51449
role	-9.51531
▁min	-9.51644
words	-9.52053
[1])	-9.52127
rule	-9.52277
prop	-9.52284
▁nn	-9.52334
style	-9.5264
[1],	-9.52797
Invalid	-9.5281
▁resp	-9.53017
created	-9.5309
language	-9.53185
units	-9.533
div	-9.53306
layout	-9.5336
▁getattr	-9.54158
extend	-9.54204
alpha	-9.54406
the	-9.54696
fake	-9.54803
amount	-9.55116
unicode	-9.55121
的	-9.55157
cluster	-9.55163
container	-9.55169
Response	-9.55271
▁df	-9.55412
def	-9.55432
!	-9.55449
package	-9.55542
▁axis	-9.55585
dt	-9.55597
\'))	-9.55602
invalid	-9.55678
▁files	-9.55743
▁filename	-9.55791
▁source	-9.56001
View	-9.56001
▁Get	-9.5618
trace	-9.5649
thread	-9.56686
ops	-9.57025
▁total	-9.57045
paths	-9.57149
Column	-9.57306
util	-9.57311
▁q	-9.57391
generate	-9.57395
master	-9.5754
NAME	-9.57587
▁verbose	-9.57833
pred	-9.58014
▁base	-9.58232
[2]	-9.58278
factory	-9.58355
▁same	-9.58437
pre	-9.5873
startswith	-9.588
al	-9.58809
▁&	-9.58812
states	-9.58819
attributes	-9.58925
J	-9.58959
summary	-9.59134
interval	-9.59134
exc	-9.59149
collection	-9.59516
part	-9.59519
vars	-9.59548
▁val	-9.59585
Number	-9.59625
entity	-9.59722
▁does	-9.59827
edge	-9.59827
screen	-9.59904
ok	-9.60057
(**	-9.60258
▁torch	-9.60278
dumps	-9.60465
loads	-9.60485
member	-9.60525
▁datetime	-9.60578
▁header	-9.60629
events	-9.60673
▁specified	-9.60703
sp	-9.60708
mod	-9.60778
({	-9.60795
cpu	-9.60803
▁render	-9.60851
secret	-9.61159
author	-9.61333
▁setUp	-9.61347
proxy	-9.6146
▁3,	-9.61564
tuple	-9.61671
multi	-9.61916
seed	-9.61941
opts	-9.62034
steps	-9.62108
▁already	-9.62286
lock	-9.62325
mat	-9.62359
grad	-9.6245
engine	-9.62597
like	-9.62639
public	-9.62671
loop	-9.62681
font	-9.6282
▁TODO	-9.62823
hidden	-9.62878
expr	-9.62965
section	-9.63233
DB	-9.63523
numpy	-9.64149
opt	-9.64168
desc	-9.64307
▁process	-9.64387
choice	-9.64593
Content	-9.64605
de	-9.64628
im	-9.64635
Size	-9.64676
web	-9.64685
▁sorted	-9.64745
3,	-9.64757
▁##	-9.64774
convert	-9.6495
Input	-9.64952
global	-9.64968
Class	-9.64997
it	-9.65049
warning	-9.65188
▁numpy	-9.65299
initial	-9.65335
factor	-9.65457
owner	-9.6558
▁main	-9.65721
cfg	-9.65734
extra	-9.65775
history	-9.65844
fail	-9.66072
▁required	-9.66136
pattern	-9.66402
Add	-9.66487
:%	-9.66646
▁Meta	-9.66663
▁need	-9.66679
**	-9.66783
case	-9.66816
▁page	-9.66931
slug	-9.67024
().__	-9.67088
▁password	-9.67289
▁body	-9.67561
cost	-9.67696
▁ax	-9.67878
▁Return	-9.67888
cur	-9.67915
Label	-9.6792
▁server	-9.67937
▁2)	-9.68094
kw	-9.68174
abs	-9.68201
▁headers	-9.68303
▁random	-9.6832
▁Create	-9.685
sequence	-9.68617
md	-9.68753
▁batch	-9.68827
▁old	-9.68943
down	-9.68957
▁"%	-9.69097
ex	-9.69123
vector	-9.69176
▁order	-9.69221
▁dictionary	-9.69223
math	-9.6927
upper	-9.69308
Manager	-9.69319
▁Returns	-9.69405
flag	-9.69863
tr	-9.6999
flow	-9.70025
unittest	-9.70046
Button	-9.70352
payload	-9.70358
png	-9.70503
enabled	-9.70525
normal	-9.70584
co	-9.70649
"):	-9.70656
16	-9.70712
=0)	-9.70767
▁temp	-9.70931
off	-9.70957
('/	-9.7119
/%	-9.71664
fname	-9.7171
----------\	-9.72005
document	-9.72143
Table	-9.72284
▁options	-9.72333
nParameters	-9.72733
API	-9.72972
testing	-9.72979
3.	-9.73125
▁parameter	-9.73209
region	-9.73306
area	-9.73339
</	-9.73384
can	-9.7346
apply	-9.73626
this	-9.7375
card	-9.73821
database	-9.73858
prob	-9.74141
import	-9.74169
skip	-9.74358
resp	-9.74363
▁than	-9.74455
speed	-9.74607
once	-9.74619
-%	-9.74621
▁there	-9.7464
▁task	-9.7485
fill	-9.74934
provider	-9.74981
▁up	-9.75064
Action	-9.75107
counter	-9.75257
ValueError	-9.75324
vm	-9.75358
tab	-9.75484
interface	-9.75533
nArgs	-9.75548
assertFalse	-9.75574
▁word	-9.75637
month	-9.7584
▁img	-9.7601
Status	-9.7612
environ	-9.76201
outputs	-9.76205
epoch	-9.76425
non	-9.76481
&	-9.76584
vals	-9.76593
\'][\'	-9.76625
distance	-9.76713
bot	-9.76799
age	-9.76805
endpoint	-9.7698
▁case	-9.77058
series	-9.77074
▁-1	-9.77117
home	-9.77156
▁requests	-9.77217
uid	-9.77264
Command	-9.77268
▁cur	-9.77292
trans	-9.77293
[-1]	-9.77316
dump	-9.7734
','	-9.77478
compute	-9.77533
Service	-9.7762
Count	-9.77657
term	-9.77771
ext	-9.77865
▁where	-9.78023
reshape	-9.7814
pt	-9.78251
std	-9.78442
fs	-9.78508
▁valid	-9.78588
messages	-9.7894
depth	-9.78945
▁pd	-9.79145
ns	-9.79199
▁Check	-9.79208
Page	-9.79214
reverse	-9.79271
▁resource	-9.79465
book	-9.79513
links	-9.79517
▁cv	-9.79553
signal	-9.79562
selected	-9.79615
cat	-9.79721
verbose	-9.79812
▁mode	-9.79883
variables	-9.80063
=%	-9.80073
▁\'%	-9.80355
fc	-9.80549
tokens	-9.80719
▁lambda	-9.80918
Context	-9.81147
us	-9.8115
ret	-9.8132
drop	-9.81321
upload	-9.81384
(2,	-9.81442
▁optional	-9.81466
TYPE	-9.82373
stat	-9.82381
delta	-9.82588
namespace	-9.82883
tasks	-9.82898
HTTP	-9.82926
▁more	-9.83133
assertEquals	-9.8315
control	-9.83296
▁here	-9.83297
days	-9.83346
fd	-9.83362
filters	-9.83499
▁de	-9.83746
Point	-9.83873
▁column	-9.83906
▁pygame	-9.83997
details	-9.8401
chain	-9.84013
remote	-9.84047
▁parameters	-9.8407
flags	-9.8409
ind	-9.84122
me	-9.84151
]))	-9.84208
Map	-9.84313
predict	-9.84424
detail	-9.84547
resources	-9.84669
================	-9.84687
▁{}".	-9.84935
release	-9.84987
zip	-9.85015
▁module	-9.85084
sqrt	-9.85122
kernel	-9.85298
▁been	-9.85345
Element	-9.85443
angle	-9.85538
edges	-9.85548
\'):	-9.85689
Line	-9.85699
assertIn	-9.85739
▁color	-9.85755
pass	-9.85793
mem	-9.85964
backend	-9.86059
vec	-9.86163
unique	-9.86233
("\\	-9.86334
compile	-9.86415
course	-9.86492
real	-9.86512
Code	-9.86539
export	-9.86555
media	-9.86737
▁E	-9.86806
Session	-9.86842
▁parse	-9.86918
topic	-9.8698
Not	-9.87019
Mock	-9.8714
tests	-9.87166
custom	-9.87263
ms	-9.87287
▁entry	-9.87327
cb	-9.87444
git	-9.87604
be	-9.87656
symbol	-9.877
▁NotImplemented	-9.87858
▁-=	-9.87866
after	-9.88093
Handler	-9.88129
power	-9.88448
Task	-9.88752
changed	-9.88762
rank	-9.88815
download	-9.88894
Log	-9.88948
▁noqa	-9.88995
controller	-9.89188
stderr	-9.89224
sync	-9.89316
none	-9.89536
▁sub	-9.89837
Date	-9.89971
▁1]	-9.89995
el	-9.90003
help	-9.90073
video	-9.90279
win	-9.90413
Result	-9.90528
cc	-9.90675
Array	-9.91046
serialize	-9.91183
lat	-9.91244
▁arguments	-9.91266
▁''	-9.91432
KEY	-9.91458
"]["	-9.91516
cols	-9.91522
freq	-9.91617
arguments	-9.91637
▁after	-9.91998
▁record	-9.92064
www	-9.92191
▁actual	-9.92201
training	-9.92329
play	-9.92524
common	-9.92627
obs	-9.92657
done	-9.92785
12	-9.92799
rtype	-9.92838
single	-9.93088
th	-9.93336
coords	-9.93406
Factory	-9.93456
ds	-9.93561
","	-9.93566
memory	-9.93574
Create	-9.93597
team	-9.93681
red	-9.93718
▁col	-9.94087
All	-9.94112
Resource	-9.94177
pid	-9.94468
encoding	-9.94755
constant	-9.94871
▁connection	-9.94907
Filter	-9.94916
▁10	-9.95103
canvas	-9.95165
nThe	-9.95207
period	-9.95299
bucket	-9.95529
translate	-9.95635
Server	-9.95636
▁my	-9.95762
▁created	-9.95771
question	-9.95841
▁2:	-9.95947
▁arg	-9.96002
("%	-9.96009
From	-9.9652
sig	-9.96549
returns	-9.96551
identifier	-9.96595
browser	-9.96596
null	-9.96787
▁'/	-9.96882
reference	-9.96948
▁database	-9.97005
'].	-9.97349
pad	-9.97396
cli	-9.9748
django	-9.97565
rules	-9.97591
OK	-9.97731
▁information	-9.9786
({'	-9.97894
Token	-9.97901
ratio	-9.97927
Output	-9.98056
helper	-9.98171
▁element	-9.98318
original	-9.98384
mapping	-9.98675
seconds	-9.98692
▁User	-9.98729
ar	-9.98787
\',\'	-9.98795
round	-9.98834
▁cmd	-9.9884
duration	-9.98915
Start	-9.98965
regex	-9.99006
__()	-9.99012
span	-9.99113
DEFAULT	-9.99199
bias	-9.99207
prev	-9.9927
reader	-9.99275
logging	-9.99404
▁We	-9.99469
ignore	-9.9956
▁reverse	-9.99686
▁player	-9.99715
lr	-9.99726
parameter	-9.99765
sim	-9.99768
binary	-9.9982
dirname	-9.99898
ax	-9.99999
▁its	-10.0001
▁raw	-10.0003
zero	-10.0008
long	-10.0018
accept	-10.0034
▁req	-10.0049
elements	-10.0055
▁two	-10.0061
]]	-10.0063
uint	-10.0073
DataFrame	-10.0079
fetch	-10.0079
▁directory	-10.0084
nThis	-10.0097
acc	-10.0097
▁methods	-10.0109
two	-10.011
private	-10.0113
ndarray	-10.0114
subject	-10.0119
ca	-10.0128
randint	-10.0129
▁then	-10.0131
track	-10.0137
li	-10.0152
▁before	-10.0168
contents	-10.0176
▁returned	-10.0182
direction	-10.0183
▁some	-10.0188
ForeignKey	-10.0188
▁your	-10.0205
▁tmp	-10.0216
New	-10.0222
blocks	-10.0236
▁err	-10.0244
Parser	-10.0246
0)	-10.0248
generator	-10.0253
le	-10.0256
Function	-10.026
dest	-10.026
static	-10.0267
calls	-10.028
▁lines	-10.0286
▁right	-10.0293
▁device	-10.0296
▁attribute	-10.0304
▁dataset	-10.0315
Color	-10.0317
zone	-10.0333
relu	-10.0342
▁"\\	-10.036
best	-10.0384
▁4,	-10.0399
verify	-10.0401
()))	-10.0413
coord	-10.0448
▁point	-10.0453
Integer	-10.0457
▁between	-10.0468
icon	-10.0477
Variable	-10.0479
low	-10.0495
Frame	-10.0503
delay	-10.051
available	-10.0515
operation	-10.0517
parts	-10.0523
components	-10.0542
where	-10.055
component	-10.0572
bind	-10.0584
clean	-10.059
vocab	-10.0592
filepath	-10.0599
refresh	-10.06
mail	-10.0605
yaml	-10.0608
={	-10.0632
argv	-10.0633
▁zip	-10.0633
fixture	-10.0637
loader	-10.0642
▁handle	-10.0647
By	-10.0662
identity	-10.0674
cleaned	-10.0693
PATH	-10.0698
▁0.0	-10.071
times	-10.0719
force	-10.0728
▁single	-10.0742
setter	-10.0745
▁exist	-10.0749
simple	-10.0752
tool	-10.0752
TEST	-10.0754
▁may	-10.0758
▁TypeError	-10.076
▁child	-10.076
On	-10.0762
gt	-10.0784
safe	-10.0784
1',	-10.0787
tile	-10.0807
▁block	-10.0807
hex	-10.0813
ones	-10.0832
avg	-10.0839
Update	-10.0841
tenant	-10.0845
threshold	-10.0847
alias	-10.0857
requests	-10.0867
▁job	-10.0877
▁description	-10.0877
js	-10.0899
modules	-10.0899
rel	-10.09
final	-10.0909
bit	-10.0909
1/	-10.0919
push	-10.0933
effect	-10.0948
32)	-10.0962
condition	-10.0967
metric	-10.0968
cloud	-10.0971
lang	-10.0971
▁local	-10.0971
missing	-10.0976
▁just	-10.098
scene	-10.099
running	-10.1003
begin	-10.1004
entries	-10.1011
Entry	-10.1011
▁build	-10.1016
counts	-10.1026
▁labels	-10.1032
beta	-10.1041
should	-10.1044
▁timeout	-10.1045
Query	-10.1051
buf	-10.1055
11	-10.1073
go	-10.1076
linear	-10.1076
▁game	-10.1092
frames	-10.1094
mp	-10.1118
You	-10.1118
urls	-10.1139
theta	-10.1148
configuration	-10.1153
registry	-10.1158
scores	-10.117
expand	-10.1171
ERROR	-10.1174
▁blank	-10.1176
merge	-10.1179
blank	-10.119
▁conn	-10.1192
cr	-10.1223
transaction	-10.1224
lookup	-10.1225
▁wx	-10.1236
▁sure	-10.1245
tools	-10.1246
operator	-10.1255
Block	-10.1258
wx	-10.1267
Module	-10.1287
▁available	-10.1293
Version	-10.1299
css	-10.1306
']:	-10.1312
▁don	-10.1315
▁[0,	-10.1317
For	-10.1318
▁non	-10.1329
▁offset	-10.134
▁sample	-10.1343
Connection	-10.1345
▁null	-10.1347
Thread	-10.1349
fp	-10.135
This	-10.1358
`\	-10.1361
install	-10.1363
sorted	-10.1364
rb	-10.1367
forward	-10.1368
▁kernel	-10.1374
mu	-10.1403
struct	-10.141
rand	-10.1414
short	-10.1421
▁\'\'	-10.1428
xpath	-10.1438
Widget	-10.1439
▁[1,	-10.146
hook	-10.1466
writer	-10.1473
bad	-10.1479
act	-10.1484
td	-10.1486
chunk	-10.1491
▁extra	-10.15
Qt	-10.1504
optional	-10.1505
▁API	-10.1507
phase	-10.151
▁provided	-10.1514
back	-10.1521
before	-10.1522
Num	-10.1531
reduce	-10.1537
cos	-10.1545
pdf	-10.1559
found	-10.1568
protocol	-10.1576
▁//	-10.1583
▁oprot	-10.1587
updated	-10.1587
share	-10.159
astype	-10.1598
▁callback	-10.1609
Conv	-10.1625
Tag	-10.1629
▁want	-10.1632
radius	-10.1633
note	-10.1639
exec	-10.1643
▁dest	-10.1655
origin	-10.1655
some	-10.1659
dims	-10.1661
With	-10.1662
▁"/	-10.1683
chat	-10.1695
▁containing	-10.1705
slice	-10.1751
forms	-10.176
Check	-10.1769
city	-10.1773
world	-10.1802
pair	-10.1805
br	-10.1808
▁step	-10.181
country	-10.181
DATA	-10.1811
={'	-10.1822
sha	-10.1822
▁generate	-10.1825
ac	-10.1847
▁initial	-10.1851
Location	-10.1851
exceptions	-10.187
▁also	-10.187
▁empty	-10.1872
▁KeyError	-10.1882
work	-10.1887
any	-10.1922
sign	-10.1923
▁passed	-10.1927
-------\	-10.193
queryset	-10.1947
▁layer	-10.1954
▁because	-10.1957
setText	-10.1958
▁padding	-10.1966
axes	-10.1968
include	-10.1984
▁sage	-10.1995
nan	-10.1997
▁over	-10.2003
cs	-10.201
hostname	-10.2019
branch	-10.2032
timer	-10.2034
-1	-10.2048
Source	-10.2059
warn	-10.206
href	-10.2068
▁ctx	-10.2071
(\'/	-10.2078
Sub	-10.2082
btn	-10.2082
$	-10.2091
answer	-10.2092
redirect	-10.2095
rec	-10.2115
▁returns	-10.2117
Tensor	-10.2127
sec	-10.215
stock	-10.2159
torch	-10.2168
Serializer	-10.2168
mm	-10.2192
End	-10.2193
▁second	-10.2194
▁exception	-10.2202
(2)	-10.2211
pages	-10.2213
[1].	-10.2226
Re	-10.2227
elem	-10.2239
=2,	-10.2249
ll	-10.226
embedding	-10.226
▁3)	-10.2262
SIZE	-10.2279
▁cursor	-10.2286
absolute	-10.2296
sep	-10.2318
Order	-10.2318
Int	-10.2318
raise	-10.2323
company	-10.2324
dropout	-10.2347
3)	-10.2351
▁unique	-10.2352
free	-10.2356
bound	-10.2365
IP	-10.2365
second	-10.2371
choices	-10.238
progress	-10.2383
flush	-10.2384
router	-10.2387
jobs	-10.2389
proc	-10.2393
phone	-10.2393
Search	-10.2408
enable	-10.2416
▁encoding	-10.2416
builder	-10.2422
▁iprot	-10.2424
▁5,	-10.2434
initializer	-10.2435
selection	-10.2437
con	-10.2439
wrap	-10.244
32,	-10.2459
platform	-10.2467
validation	-10.2469
person	-10.2486
pkg	-10.2496
\\\\	-10.2499
1:	-10.25
▁change	-10.2502
feed	-10.2504
DIR	-10.2511
tx	-10.2514
Open	-10.2518
▁doc	-10.2545
▁1.0	-10.2551
▁redirect	-10.2563
▁now	-10.2565
▁them	-10.2568
worker	-10.2575
figure	-10.2589
▁position	-10.2602
schedule	-10.2603
=1	-10.2612
docs	-10.2615
complete	-10.2617
▁errors	-10.2617
[3]	-10.2629
Dir	-10.2638
Layer	-10.2642
activity	-10.2661
place	-10.2668
room	-10.2683
stage	-10.2683
Mode	-10.2684
cert	-10.2689
security	-10.2697
reply	-10.2707
▁defined	-10.271
▁original	-10.2719
▁math	-10.2724
ir	-10.2738
▁failed	-10.2744
App	-10.2749
dic	-10.275
rs	-10.2755
props	-10.2765
Graph	-10.2771
migrations	-10.2771
kind	-10.2776
▁Optional	-10.278
sin	-10.2787
▁thread	-10.2798
▁channel	-10.2799
▁payload	-10.2801
cast	-10.2801
abc	-10.2815
Of	-10.2822
▁matrix	-10.2823
Instance	-10.2824
▁attr	-10.2825
Is	-10.2831
extension	-10.2833
comments	-10.2835
=0	-10.2837
▁attributes	-10.2845
▁Add	-10.2852
▁configuration	-10.2866
comp	-10.2867
Method	-10.2878
=2)	-10.2884
high	-10.2905
ps	-10.2923
Link	-10.2926
Failed	-10.2934
inst	-10.2945
arange	-10.2951
services	-10.2952
)])	-10.3002
commands	-10.3003
submit	-10.3004
na	-10.3007
Un	-10.3016
4,	-10.3016
Str	-10.3023
Template	-10.3024
inv	-10.3027
\']:	-10.3032
ad	-10.3047
20	-10.3049
▁correct	-10.3058
cv	-10.3059
resize	-10.3062
contains	-10.3065
signature	-10.3072
Migration	-10.3089
vol	-10.31
ec	-10.3102
scan	-10.3107
article	-10.3115
IN	-10.3116
wb	-10.3118
▁tree	-10.3121
shift	-10.3136
over	-10.3139
'}	-10.3142
members	-10.3143
disk	-10.3143
permission	-10.3145
rest	-10.3158
▁feature	-10.3162
▁###	-10.3166
▁parsed	-10.3178
▁different	-10.3178
cp	-10.319
basic	-10.3197
dec	-10.3198
FILE	-10.3202
▁whether	-10.3208
▁variable	-10.3218
Settings	-10.3221
same	-10.3222
github	-10.3232
records	-10.3237
del	-10.3238
ls	-10.3242
Length	-10.3252
Process	-10.3258
▁un	-10.3262
lon	-10.3273
da	-10.3281
▁final	-10.3286
sheet	-10.3288
setting	-10.3291
('\\	-10.3301
mac	-10.3303
18	-10.3303
byte	-10.331
segment	-10.3332
▁doesn	-10.3337
▁1),	-10.3348
Window	-10.335
Max	-10.3353
targets	-10.3358
placeholder	-10.336
metrics	-10.3362
00	-10.3367
Tree	-10.3379
calc	-10.3379
▁work	-10.3395
{}	-10.3399
Url	-10.3411
dc	-10.3424
sigma	-10.3424
dst	-10.3427
defaults	-10.3428
panel	-10.343
▁100	-10.3436
sender	-10.3454
sent	-10.3468
nthe	-10.3472
unpack	-10.3475
13	-10.3481
▁graph	-10.3488
ssh	-10.3489
ent	-10.3489
▁top	-10.349
tar	-10.3491
00\\	-10.3494
related	-10.3495
▁exc	-10.3517
And	-10.3517
double	-10.3523
async	-10.3524
addWidget	-10.3538
▁inputs	-10.354
▁finally	-10.3543
501	-10.355
clip	-10.3553
partner	-10.3565
▁'%	-10.357
(3,	-10.3577
Device	-10.3578
strftime	-10.3582
visible	-10.3584
sock	-10.359
▁part	-10.3591
used	-10.3592
payment	-10.3592
man	-10.3603
notify	-10.3611
MAX	-10.3612
Dialog	-10.3622
▁stream	-10.3622
colors	-10.3626
▁existing	-10.3626
Player	-10.363
!")	-10.363
Address	-10.3634
▁operations	-10.3636
▁'--	-10.3642
cookie	-10.3644
contact	-10.3646
currency	-10.3648
fmt	-10.365
false	-10.3652
actual	-10.3652
("/	-10.3666
primary	-10.3667
▁metadata	-10.3667
inf	-10.3675
Parameter	-10.3677
100	-10.3712
ED	-10.3714
quote	-10.3717
snapshot	-10.3728
bottom	-10.373
cm	-10.3732
`.\	-10.3743
mesh	-10.3754
configure	-10.3757
'},	-10.378
▁include	-10.3804
geo	-10.3814
2:	-10.3822
sh	-10.3822
Box	-10.3823
enter	-10.3827
Queue	-10.3828
setUp	-10.383
Matrix	-10.3831
keep	-10.3834
▁0),	-10.3836
▁network	-10.3843
Job	-10.3858
pl	-10.3867
▁sequence	-10.3874
Default	-10.3886
▁added	-10.3891
basename	-10.3892
▁\'/	-10.3893
15	-10.3897
▁based	-10.3907
uniform	-10.3913
bits	-10.3924
pin	-10.3932
Obj	-10.3934
square	-10.3935
▁It	-10.3935
Mixin	-10.3937
TypeError	-10.3943
invoice	-10.3946
shared	-10.3946
devices	-10.3963
endswith	-10.3964
▁K	-10.3988
▁pytest	-10.3994
pb	-10.4005
'\\	-10.4008
▁},	-10.4033
failed	-10.4056
)[0]	-10.406
ma	-10.406
emit	-10.4066
▁0]	-10.4067
lst	-10.4074
alt	-10.4077
IntegerField	-10.4088
Dataset	-10.4092
background	-10.4096
packet	-10.411
Account	-10.4111
ascii	-10.4115
reason	-10.4124
Plugin	-10.4127
ver	-10.4131
light	-10.4146
instances	-10.4151
▁they	-10.4153
plugins	-10.4158
ssl	-10.4166
Please	-10.4172
▁integer	-10.4179
strategy	-10.4182
family	-10.4185
▁full	-10.4189
▁through	-10.4191
encoder	-10.42
cuda	-10.4219
Admin	-10.4227
gui	-10.4232
▁best	-10.4247
logits	-10.4253
editor	-10.4256
lo	-10.4268
▁instead	-10.427
isinstance	-10.4272
▁"--	-10.4272
transport	-10.4276
▁Set	-10.4277
\'"	-10.4282
Format	-10.4288
car	-10.4292
nb	-10.4304
Network	-10.4308
selector	-10.4311
▁alpha	-10.4319
et	-10.4326
24	-10.4329
▁LOG	-10.4329
▁move	-10.4333
USER	-10.4342
▁both	-10.435
gpu	-10.4365
ra	-10.4368
Return	-10.4369
face	-10.4383
256	-10.4383
({"	-10.4395
bb	-10.4397
rc	-10.4412
▁src	-10.4412
▁10,	-10.4415
▁convert	-10.4425
mo	-10.4437
END	-10.4444
environment	-10.4461
prepare	-10.4462
padding	-10.4479
internal	-10.4481
gamma	-10.4482
Range	-10.4483
▁[])	-10.4484
balance	-10.4487
quantity	-10.4498
=['	-10.4502
▁messages	-10.4514
dummy	-10.452
allow	-10.4524
▁HttpResponse	-10.4527
expression	-10.4538
tables	-10.454
switch	-10.4542
::\	-10.4549
modified	-10.455
pub	-10.4553
30	-10.4555
cancel	-10.456
getattr	-10.4561
rev	-10.4561
an	-10.4566
▁1))	-10.4567
▁our	-10.4568
ct	-10.458
previous	-10.4586
clicked	-10.4586
par	-10.4588
▁training	-10.4592
nums	-10.4601
Position	-10.4629
cached	-10.4632
phi	-10.4633
calculate	-10.4635
inner	-10.4641
customer	-10.4668
(\'\\	-10.467
▁variables	-10.4677
lb	-10.4677
▁done	-10.4681
▁cell	-10.4683
▁points	-10.4697
usage	-10.4698
credentials	-10.47
Document	-10.4702
xy	-10.4706
wrapper	-10.4711
ast	-10.4711
publish	-10.4722
▁[],	-10.4722
▁disable	-10.4736
external	-10.4739
▁pre	-10.4746
fast	-10.4747
cells	-10.4747
suffix	-10.4748
▁{}'.	-10.4753
▁rows	-10.4757
▁keep	-10.4772
▁forms	-10.4778
▁operation	-10.4779
today	-10.4781
5,	-10.4787
Change	-10.4789
()]	-10.4791
correct	-10.4797
▁delta	-10.4804
▁dt	-10.4804
hello	-10.4806
▁ignore	-10.4811
ports	-10.4817
▁unit	-10.4821
SELECT	-10.4823
bus	-10.4828
curr	-10.4833
matches	-10.4837
Schema	-10.4839
parsed	-10.4848
unknown	-10.4862
[0,	-10.4873
Pos	-10.4873
▁Column	-10.488
NO	-10.4904
Linear	-10.4905
▁cannot	-10.4908
methods	-10.491
▁see	-10.4913
-1]	-10.4916
rating	-10.4931
destination	-10.4933
est	-10.4936
▁0.5	-10.4936
poll	-10.4938
scheme	-10.4947
many	-10.4958
({\'	-10.4959
▁columns	-10.496
Project	-10.4964
latest	-10.4967
proto	-10.4971
rgb	-10.4975
complex	-10.4978
Property	-10.4992
serializer	-10.5005
normalize	-10.5012
▁option	-10.5013
▁possible	-10.5013
▁plot	-10.5016
Vector	-10.5016
ul	-10.502
Run	-10.502
recv	-10.5038
GL	-10.5039
structure	-10.5042
▁allow	-10.5059
'})	-10.5066
bounds	-10.5066
▁following	-10.5067
const	-10.5068
▁back	-10.5071
hour	-10.5078
plan	-10.508
▁Python	-10.5083
Attribute	-10.5083
players	-10.5096
google	-10.5104
hosts	-10.5108
iteritems	-10.5122
cl	-10.5127
sentence	-10.514
so	-10.5141
▁loop	-10.5145
▁dependencies	-10.5145
▁six	-10.515
);	-10.5158
shell	-10.5162
audio	-10.5164
▁'''	-10.5173
cut	-10.5175
fun	-10.5183
tz	-10.5185
Record	-10.5185
▁font	-10.5186
redis	-10.5191
portal	-10.5198
override	-10.5198
▁package	-10.52
transpose	-10.5205
Select	-10.5209
retry	-10.521
pipeline	-10.5222
tick	-10.5223
▁flag	-10.5229
cf	-10.523
\'}	-10.523
roles	-10.5232
▁bytes	-10.5237
cd	-10.5237
One	-10.5243
▁3:	-10.5248
1",	-10.5249
▁about	-10.5251
▁exp	-10.5257
▁'\\	-10.5261
tail	-10.5273
▁previous	-10.5293
dictionary	-10.5293
dialog	-10.5295
Cache	-10.5299
ix	-10.5302
▁{0}	-10.5308
Options	-10.5309
Py	-10.5329
when	-10.5333
Target	-10.5334
]['	-10.5339
▁either	-10.5342
hi	-10.5351
('%	-10.5361
01	-10.5368
permissions	-10.5369
subprocess	-10.5372
▁custom	-10.5374
14	-10.5374
▁0],	-10.5385
dirs	-10.5388
]\	-10.5393
Meta	-10.5402
▁AttributeError	-10.5417
=3,	-10.5422
2',	-10.5425
rt	-10.5433
▁limit	-10.5438
la	-10.544
Sequence	-10.5443
mass	-10.5445
visit	-10.5445
flat	-10.545
▁An	-10.5453
examples	-10.5455
▁200)	-10.5457
keyword	-10.5462
__.__	-10.5462
atom	-10.5463
po	-10.5472
▁setup	-10.5474
25	-10.5478
exclude	-10.548
▁draw	-10.5481
Profile	-10.5482
▁their	-10.5482
learning	-10.5484
Series	-10.5499
evaluate	-10.5502
average	-10.551
▁selected	-10.5516
▁socket	-10.5524
orig	-10.5533
multiple	-10.5554
te	-10.5557
archive	-10.5561
▁For	-10.5567
monitor	-10.559
INFO	-10.5592
ping	-10.5594
asset	-10.5596
▁compute	-10.5597
▁\'--	-10.56
Delete	-10.5601
Read	-10.5603
02	-10.5618
nIf	-10.5634
pending	-10.5638
Row	-10.5644
categories	-10.5647
▁subprocess	-10.5652
ml	-10.5658
enc	-10.5662
▁these	-10.5662
▁layout	-10.5664
▁scale	-10.5666
views	-10.5672
geometry	-10.5676
▁stop	-10.5676
backup	-10.5678
Port	-10.5678
cap	-10.5678
allclose	-10.5694
▁support	-10.571
allowed	-10.5712
▁supported	-10.5712
cards	-10.5718
ap	-10.5718
Configuration	-10.5727
ro	-10.5741
white	-10.5742
perm	-10.5745
ff	-10.5746
repeat	-10.5756
ep	-10.5769
issue	-10.5769
optimizer	-10.5778
neg	-10.5779
▁schema	-10.5781
activation	-10.5797
▁force	-10.5801
ws	-10.5801
timedelta	-10.5808
artist	-10.5812
▁stride	-10.5815
slot	-10.5826
ant	-10.5827
▁without	-10.5832
(-1,	-10.584
={\'	-10.5841
▁entity	-10.5846
[1:]	-10.5849
localhost	-10.5855
Tests	-10.5858
black	-10.586
contract	-10.5862
sess	-10.5862
ptr	-10.5875
pd	-10.5877
hours	-10.5882
less	-10.5882
▁QtGui	-10.5891
Post	-10.5896
__(*	-10.5909
▁multiple	-10.5914
program	-10.5918
student	-10.5919
▁activation	-10.5921
mid	-10.5923
rep	-10.5927
pc	-10.5933
Unit	-10.5943
▁setattr	-10.5953
revision	-10.5961
embed	-10.5965
▁contains	-10.5969
Interface	-10.5973
ic	-10.5978
ab	-10.5978
System	-10.598
▁4)	-10.598
▁what	-10.5985
"]:	-10.599
cnt	-10.5996
DEBUG	-10.6001
"\\	-10.6009
codes	-10.6011
).\	-10.6011
0.	-10.6012
pairs	-10.6014
digits	-10.6016
indent	-10.6018
repository	-10.6029
integer	-10.6029
[2])	-10.6037
TO	-10.604
turn	-10.6042
assertIsInstance	-10.6052
bg	-10.6054
cross	-10.6054
Stream	-10.6055
Title	-10.606
mc	-10.6092
isfile	-10.6101
▁Make	-10.6104
▁like	-10.6108
arch	-10.6108
▁validate	-10.6109
positions	-10.611
▁distance	-10.6113
Category	-10.6118
Header	-10.6122
▁queryset	-10.6126
▁being	-10.6129
▁{})	-10.613
▁forward	-10.6132
tk	-10.6134
▁prev	-10.6151
serial	-10.6156
flatten	-10.616
runner	-10.6161
Step	-10.6173
ValidationError	-10.6176
partition	-10.6191
marker	-10.6192
photo	-10.6192
priority	-10.6206
sources	-10.6209
connected	-10.621
▁since	-10.6212
chars	-10.6225
trigger	-10.623
2))	-10.6232
lt	-10.6232
sel	-10.6239
pixel	-10.6244
concat	-10.6244
sym	-10.6248
17	-10.6249
nd	-10.6267
templates	-10.627
notes	-10.6274
until	-10.6275
hand	-10.6285
deleted	-10.6289
▁comment	-10.629
organization	-10.6308
atoms	-10.6312
functions	-10.6317
percent	-10.6319
reward	-10.6321
50	-10.6328
library	-10.6332
2]	-10.6338
▁primary	-10.6349
Control	-10.6349
packages	-10.6351
19	-10.6351
[2],	-10.6355
▁otherwise	-10.6359
ING	-10.6359
ipv	-10.6363
bn	-10.6365
dx	-10.6366
ne	-10.6366
RE	-10.6369
failure	-10.6376
[:]	-10.639
cov	-10.6393
▁document	-10.6394
OS	-10.6396
surface	-10.6398
blob	-10.64
sc	-10.6403
dl	-10.6405
hist	-10.6425
blue	-10.6426
projects	-10.6447
▁updated	-10.6449
noise	-10.645
handlers	-10.6451
▁reference	-10.6452
200	-10.646
catalog	-10.6463
review	-10.6468
iso	-10.6473
proj	-10.6474
CONF	-10.6475
deepcopy	-10.6477
=0):	-10.6478
+1	-10.6484
rpc	-10.6486
definition	-10.6489
em	-10.6493
ion	-10.6494
"}	-10.6497
▁clean	-10.6498
▁cluster	-10.651
Menu	-10.6511
Agent	-10.6526
1]	-10.6535
▁JSON	-10.6539
▁allowed	-10.654
star	-10.6545
feat	-10.6553
destroy	-10.6556
(4,	-10.6561
▁how	-10.6568
numbers	-10.6569
▁weights	-10.6571
▁serializer	-10.6575
partial	-10.6579
▁container	-10.6583
logs	-10.6588
finish	-10.6589
▁plugin	-10.6596
Unknown	-10.66
▁fig	-10.6603
rm	-10.6604
Collection	-10.6608
sizes	-10.6626
Rule	-10.6626
▁generated	-10.6627
scalar	-10.663
changes	-10.6632
quit	-10.6635
tax	-10.6649
servers	-10.6654
▁rule	-10.6661
threads	-10.6661
gl	-10.6666
▁matches	-10.6668
Container	-10.6672
Description	-10.6676
▁FROM	-10.6678
▁migrations	-10.6679
▁\'<	-10.6681
Out	-10.6686
▁missing	-10.6689
▁1],	-10.6695
dat	-10.6696
▁elements	-10.6696
assign	-10.6696
▁urllib	-10.6697
boxes	-10.6712
live	-10.6724
^	-10.6732
Password	-10.6738
Storage	-10.6738
compare	-10.6743
`,	-10.6743
\'\\	-10.6743
▁async	-10.6749
2):	-10.6755
echo	-10.6767
bbox	-10.6777
vertex	-10.6781
Entity	-10.6783
Store	-10.6795
▁remote	-10.6804
initialize	-10.6808
▁pylint	-10.681
blog	-10.6828
▁10)	-10.6836
without	-10.6853
▁sess	-10.6865
extensions	-10.6865
Game	-10.687
My	-10.6872
▁direction	-10.6872
▁RuntimeError	-10.6873
green	-10.6874
actor	-10.6874
hide	-10.6876
gene	-10.6876
dd	-10.6885
existing	-10.6889
aa	-10.6897
resolve	-10.6907
▁"0	-10.6908
Host	-10.692
De	-10.6921
JSON	-10.6922
▁system	-10.6925
Email	-10.6926
:\\	-10.6933
sets	-10.6943
Show	-10.6952
workers	-10.6956
energy	-10.6963
-1)	-10.697
":"	-10.6977
Word	-10.6985
tmpdir	-10.6986
▁HTTP	-10.6987
jpg	-10.7011
se	-10.7012
▁"<	-10.7017
▁Mock	-10.7022
attrib	-10.7027
glob	-10.7033
>"	-10.7042
Policy	-10.7044
▁1):	-10.7054
align	-10.7056
escape	-10.7066
gs	-10.7087
▁specific	-10.7096
][0]	-10.712
closed	-10.7127
▁bpy	-10.7127
disable	-10.7136
▁{},	-10.7137
fig	-10.7148
walk	-10.7159
plus	-10.7162
▁verify	-10.7163
present	-10.7166
dense	-10.7167
parametrize	-10.7168
abspath	-10.7182
sa	-10.7192
DateTimeField	-10.7193
Net	-10.7194
machine	-10.72
Api	-10.7204
Edit	-10.7205
rot	-10.7212
clock	-10.7217
coordinates	-10.7227
Var	-10.7231
px	-10.7237
oauth	-10.7238
constants	-10.7245
▁related	-10.7246
velocity	-10.7256
▁fp	-10.7258
Move	-10.7266
▁would	-10.7276
fixed	-10.7281
ce	-10.7284
Feature	-10.7295
tc	-10.7305
cube	-10.7306
camera	-10.7307
sprite	-10.7309
▁attrs	-10.7317
▁signal	-10.7318
binding	-10.732
seek	-10.7321
dynamic	-10.7321
▁nullable	-10.7323
ALL	-10.7328
super	-10.7328
vel	-10.7329
enum	-10.7336
Channel	-10.7344
ON	-10.7348
▁la	-10.7357
accounts	-10.7358
accuracy	-10.7359
legend	-10.7364
(3)	-10.737
LOG	-10.7374
notification	-10.7376
▁could	-10.7384
Controller	-10.7384
cal	-10.7387
▁region	-10.7421
Level	-10.7423
▁needed	-10.7426
-8')	-10.7429
prod	-10.7432
vertices	-10.7443
mouse	-10.7444
decoder	-10.745
support	-10.7472
Values	-10.7475
Enum	-10.7479
processed	-10.748
If	-10.7491
▁collection	-10.7493
Auth	-10.7497
band	-10.7501
lab	-10.7515
▁words	-10.7517
clusters	-10.7523
ha	-10.7524
decay	-10.7525
problem	-10.7533
CONFIG	-10.7533
▁uid	-10.7535
▁section	-10.754
▁\'\\	-10.7543
123	-10.7549
▁200	-10.7552
findall	-10.7558
timezone	-10.7562
Shape	-10.7564
hit	-10.757
Multi	-10.7571
Application	-10.7578
formats	-10.7579
frequency	-10.758
▁pattern	-10.7586
ve	-10.7592
Product	-10.7599
▁vector	-10.7601
(5,	-10.7618
Val	-10.7619
Params	-10.762
listdir	-10.7621
rnn	-10.7624
finished	-10.7628
lazy	-10.7633
hp	-10.7645
dns	-10.7653
1\',	-10.7656
deserialize	-10.7658
IO	-10.766
▁keyword	-10.7669
Reference	-10.7671
▁contain	-10.7673
▁such	-10.7674
bins	-10.7678
expect	-10.7679
asarray	-10.7681
pr	-10.7684
Local	-10.7688
={"	-10.7693
▁running	-10.7693
▁report	-10.77
dep	-10.7701
><	-10.7703
ci	-10.7703
using	-10.7704
▁within	-10.7711
'][	-10.7713
salt	-10.7721
subnet	-10.7732
1),	-10.7733
sparse	-10.7738
dispatch	-10.7743
QtCore	-10.7744
▁functions	-10.7754
ta	-10.7754
Card	-10.7762
()),	-10.7762
▁5)	-10.7769
=[]	-10.7776
Database	-10.7789
Ref	-10.7791
▁every	-10.7802
▁style	-10.7811
am	-10.7822
()[0]	-10.7826
"\'	-10.7827
▁chunk	-10.7829
Parameters	-10.7832
NOT	-10.7835
OR	-10.7844
sensor	-10.7845
▁namespace	-10.7848
Stack	-10.7848
▁setting	-10.7855
movie	-10.7855
getitem	-10.7867
IS	-10.7871
seg	-10.7871
Access	-10.7874
ty	-10.7875
activate	-10.7879
tt	-10.788
TextField	-10.7881
([])	-10.7889
attach	-10.7894
snap	-10.7894
impl	-10.7898
404	-10.791
▁curr	-10.7923
pointer	-10.7926
subscription	-10.7937
▁environment	-10.7939
pickle	-10.7939
ation	-10.7945
Width	-10.7945
+1)	-10.7947
mb	-10.795
Option	-10.795
almost	-10.7952
statement	-10.7952
nick	-10.7958
XML	-10.7959
strings	-10.797
rad	-10.7972
nt	-10.7975
▁edge	-10.7977
=10,	-10.7985
health	-10.799
As	-10.7998
...")	-10.8
published	-10.8003
added	-10.8005
▁abs	-10.8007
▁wrapper	-10.8008
mag	-10.8012
Begin	-10.8022
Generator	-10.8038
makedirs	-10.8041
▁'')	-10.8058
dy	-10.8067
tp	-10.8068
▁endpoint	-10.8072
▁outputs	-10.8078
ensure	-10.8082
workflow	-10.8087
Handle	-10.8089
▁corresponding	-10.8094
relative	-10.8099
Can	-10.8105
]),	-10.8111
ER	-10.8112
]])	-10.8114
Proxy	-10.8115
ring	-10.8115
Comment	-10.8117
pg	-10.8123
abstractmethod	-10.8129
tm	-10.8131
fix	-10.8134
clone	-10.8136
▁maximum	-10.8147
-8\')	-10.8148
checkpoint	-10.8158
▁sent	-10.8158
entities	-10.8158
iterator	-10.8164
▁Any	-10.8169
dimension	-10.8171
Or	-10.8173
rotate	-10.8174
▁0.0,	-10.8174
cond	-10.8174
fr	-10.8176
(\'%	-10.8178
plural	-10.8183
▁interface	-10.8186
>\'	-10.8186
}".	-10.8187
Batch	-10.8197
terms	-10.8205
setattr	-10.8206
▁role	-10.8214
docker	-10.8216
1')	-10.8222
prime	-10.8227
▁strings	-10.8233
ctrl	-10.8242
Score	-10.8245
Grid	-10.8251
Volume	-10.8257
flip	-10.827
probs	-10.8273
transfer	-10.8273
slots	-10.8275
90	-10.8277
gate	-10.8277
gateway	-10.8281
"%	-10.8291
ndim	-10.8296
pts	-10.8296
ob	-10.83
nc	-10.8301
Bar	-10.8305
STATUS	-10.8311
[@	-10.8316
console	-10.8341
Helper	-10.8344
▁QtWidgets	-10.8346
setdefault	-10.835
vs	-10.8363
"+	-10.8366
▁Default	-10.8368
Role	-10.8372
▁fill	-10.8373
Component	-10.8379
▁calculate	-10.8379
Total	-10.8392
▁video	-10.8395
Def	-10.8403
apps	-10.841
um	-10.8412
▁tokens	-10.8415
(%	-10.8416
wiki	-10.8417
annotations	-10.8427
ev	-10.8436
character	-10.8446
staff	-10.8454
shuffle	-10.8458
**2	-10.8459
emb	-10.8468
rename	-10.847
maps	-10.8473
[0]]	-10.8478
Missing	-10.8479
-1,	-10.8486
▁ex	-10.8488
dependencies	-10.8496
backward	-10.8503
▁[[	-10.8507
Match	-10.8511
standard	-10.8513
Cannot	-10.8514
Accept	-10.852
▁fake	-10.8526
ers	-10.8526
▁seconds	-10.8528
readline	-10.853
mul	-10.8532
▁always	-10.8534
('--	-10.8537
requires	-10.8538
deg	-10.8539
▁answer	-10.855
Float	-10.8553
ee	-10.8556
▁opt	-10.856
Report	-10.856
Simple	-10.8564
epochs	-10.8564
Warning	-10.8569
bank	-10.8571
validator	-10.8571
▁Use	-10.8571
▁least	-10.8572
dp	-10.8601
att	-10.8606
▁amount	-10.8611
][\'	-10.8611
▁im	-10.8613
plain	-10.8619
Min	-10.862
bc	-10.8623
softmax	-10.8624
Layout	-10.863
mi	-10.8634
+"	-10.8635
tb	-10.8639
registration	-10.8639
(10,	-10.8641
Directory	-10.8641
flavor	-10.8643
negative	-10.8646
▁See	-10.8646
Operation	-10.8655
indexes	-10.8667
crop	-10.8668
kill	-10.867
af	-10.8672
▁associated	-10.8673
floor	-10.8677
circle	-10.8682
▁again	-10.8685
ready	-10.8687
ship	-10.8698
limits	-10.8703
concatenate	-10.8703
lengths	-10.8703
xyz	-10.8707
major	-10.8712
▁shutil	-10.8721
restore	-10.8728
Files	-10.8729
23	-10.8729
MagicMock	-10.8734
▁struct	-10.8736
mapper	-10.8737
8)	-10.8737
shen	-10.8738
margin	-10.8746
Offset	-10.8747
6,	-10.8748
▁track	-10.8755
Current	-10.877
▁got	-10.8779
▁feed	-10.8783
border	-10.8785
exist	-10.8785
Basic	-10.8789
80	-10.8789
▁\'\'\'	-10.8789
▁invalid	-10.8792
keywords	-10.8793
Enter	-10.8796
}}	-10.8812
~	-10.8812
▁-1,	-10.8813
▁screen	-10.8813
▁events	-10.8816
aws	-10.8823
curve	-10.8833
1))	-10.8833
big	-10.8834
▁stored	-10.8837
▁another	-10.8838
ai	-10.884
ph	-10.8843
ball	-10.8844
Write	-10.8845
Op	-10.8847
pp	-10.8853
At	-10.8857
fa	-10.8862
)*	-10.8862
mkdir	-10.8863
▁take	-10.8865
DoesNotExist	-10.8872
good	-10.8873
cycle	-10.8881
focus	-10.8883
▁expect	-10.8886
dom	-10.8887
lists	-10.8889
letter	-10.889
song	-10.8892
see	-10.8897
stride	-10.8898
Call	-10.8899
analysis	-10.89
VERSION	-10.8902
roll	-10.8905
generic	-10.892
(0	-10.8923
mol	-10.8925
episode	-10.8929
"})	-10.8937
SET	-10.894
rd	-10.895
cmp	-10.8952
pe	-10.8955
ord	-10.8955
▁were	-10.8959
▁pickle	-10.8961
▁skip	-10.8967
▁reason	-10.8973
▁tests	-10.8974
constraint	-10.8985
▁component	-10.899
Load	-10.8996
Save	-10.8997
▁representation	-10.8998
Display	-10.9003
each	-10.9014
poly	-10.9016
versions	-10.9022
ie	-10.9023
pw	-10.9025
dm	-10.9025
rotation	-10.9029
Sample	-10.9032
inc	-10.9032
diag	-10.9037
capacity	-10.9037
BASE	-10.9048
prediction	-10.9056
solution	-10.9059
▁present	-10.9072
ia	-10.9077
Auto	-10.9081
\']))	-10.9089
goal	-10.9095
Last	-10.9095
PIPE	-10.9101
Param	-10.9107
▁nums	-10.9109
▁cfg	-10.9111
locale	-10.9113
future	-10.9116
connections	-10.9122
that	-10.9136
Root	-10.9141
Build	-10.9143
Wrapper	-10.9143
Reader	-10.9146
cookies	-10.9148
listener	-10.9168
isdir	-10.9171
▁soup	-10.9173
wave	-10.9175
digest	-10.9175
cart	-10.9182
moves	-10.9182
precision	-10.919
---------------	-10.9193
gradient	-10.9194
Pool	-10.9201
latitude	-10.9201
disabled	-10.9203
hot	-10.9204
▁xrange	-10.9206
week	-10.921
prompt	-10.9213
Cell	-10.9214
qs	-10.9219
▁(1	-10.922
Empty	-10.9221
+1,	-10.9223
ti	-10.9231
gz	-10.9236
[4]	-10.9238
let	-10.9241
(\'--	-10.9242
alert	-10.9244
encoded	-10.925
lineno	-10.9251
▁yet	-10.9255
▁commands	-10.926
▁WHERE	-10.9261
creator	-10.9262
//	-10.9266
predictions	-10.9275
▁6,	-10.9276
▁needs	-10.9277
album	-10.9278
21	-10.9278
▁<<	-10.9282
processor	-10.9284
▁way	-10.9285
▁common	-10.9285
Json	-10.9288
inventory	-10.929
▁zero	-10.9295
Up	-10.9296
▁filters	-10.931
Folder	-10.9318
received	-10.9323
▁Note	-10.9325
▁condition	-10.9326
Names	-10.9328
▁"")	-10.933
distribution	-10.9333
Expression	-10.9334
execution	-10.9336
try	-10.9337
▁:]	-10.9338
{0}	-10.9339
([1,	-10.9343
Msg	-10.9359
posts	-10.937
▁changes	-10.9371
NotFound	-10.9373
▁long	-10.9375
mgr	-10.9378
=3)	-10.9379
▁ensure	-10.938
▁mapping	-10.9383
uv	-10.9396
ify	-10.94
Spec	-10.9403
▁coordinates	-10.9403
authenticated	-10.9406
entropy	-10.9417
windows	-10.9421
ssertAlmostEqual	-10.9435
il	-10.9441
filtered	-10.9451
TIME	-10.9456
▁warnings	-10.9457
▁2),	-10.9458
\'})	-10.9459
ge	-10.9468
degree	-10.9471
:`~	-10.9495
yes	-10.9496
Args	-10.9496
▁removed	-10.9498
station	-10.9501
LIST	-10.9507
▁rv	-10.9508
meth	-10.952
pm	-10.9522
stmt	-10.9533
issues	-10.954
vote	-10.9544
4.	-10.9545
tracker	-10.955
▁character	-10.9553
Transaction	-10.9555
Counter	-10.9561
Could	-10.9562
Operator	-10.957
URI	-10.9571
Tuple	-10.958
interfaces	-10.9581
watch	-10.9582
prog	-10.9586
information	-10.9589
annotation	-10.9604
▁\'\')	-10.9605
>\\	-10.9615
RGB	-10.9622
eps	-10.9623
8,	-10.9623
specs	-10.9631
small	-10.9632
First	-10.9633
▁Remove	-10.9635
▁TType	-10.9639
ba	-10.9644
▁"-	-10.9651
bundle	-10.9651
▁Update	-10.9652
nu	-10.9654
Transform	-10.9659
responses	-10.966
ips	-10.9662
pipe	-10.9667
bi	-10.9675
REQUEST	-10.9676
Col	-10.9677
▁sp	-10.9679
▁implemented	-10.968
SubElement	-10.9684
scheduler	-10.9688
locations	-10.9694
03	-10.9699
inp	-10.97
Stop	-10.9703
music	-10.971
rstrip	-10.9713
are	-10.9714
maximum	-10.9718
▁OrderedDict	-10.9726
rf	-10.9727
Package	-10.9727
STATE	-10.9729
cam	-10.9731
Redirect	-10.9731
acl	-10.9739
US	-10.9741
▁means	-10.9748
STRING	-10.9754
▁download	-10.9755
Style	-10.9759
shapes	-10.9761
Rect	-10.9764
assignment	-10.9765
2",	-10.9773
▁(%	-10.9774
'''	-10.9776
NS	-10.9777
ity	-10.9782
Rate	-10.9786
Signal	-10.9798
']))	-10.9798
+1]	-10.9805
Expected	-10.9806
ticket	-10.9809
peer	-10.9809
Price	-10.9813
▁note	-10.9815
▁'-	-10.9815
exe	-10.9815
▁saved	-10.9817
ii	-10.9821
dimensions	-10.9821
▁Gtk	-10.9822
4)	-10.9823
▁dst	-10.9825
iv	-10.9829
pose	-10.9833
solver	-10.985
nand	-10.986
[0][0]	-10.9872
▁dimension	-10.9874
most	-10.9878
gr	-10.9879
epsilon	-10.988
42	-10.989
assertIsNone	-10.9891
transition	-10.9892
pic	-10.9892
▁shen	-10.9893
Logger	-10.9894
Sum	-10.9896
▁-1:	-10.9905
ud	-10.9909
1")	-10.991
widgets	-10.991
DELETE	-10.9911
classifier	-10.9912
Returns	-10.9917
saved	-10.9921
manage	-10.9923
etc	-10.9925
▁entries	-10.9927
ang	-10.9934
-8	-10.9934
boolean	-10.9935
▁mod	-10.9935
chan	-10.994
/{	-10.9941
Left	-10.9941
calendar	-10.9942
more	-10.9946
Close	-10.9949
news	-10.9961
▁via	-10.9972
Char	-10.9973
experiment	-10.9988
1-	-10.9988
▁flags	-10.9992
[0:	-10.9994
▁destination	-10.9994
shutdown	-10.9995
▁0))	-11.0002
28	-11.0009
collect	-11.0011
separator	-11.0012
take	-11.0015
▁relative	-11.0017
▁program	-11.0017
virtual	-11.0021
='',	-11.0022
pow	-11.0028
':'	-11.0031
Validator	-11.0031
Protocol	-11.0035
Metadata	-11.0042
ness	-11.0042
▁When	-11.0043
outfile	-11.0051
Python	-11.0058
Site	-11.006
utc	-11.006
Height	-11.0064
theme	-11.0066
baz	-11.0067
Hello	-11.0068
▁extension	-11.007
▁many	-11.007
Init	-11.0071
▁avoid	-11.0071
cleanup	-11.0072
▁4:	-11.0079
MAP	-11.0082
preview	-11.0082
▁shell	-11.0083
we	-11.0085
▁too	-11.0086
completed	-11.0089
▁hidden	-11.009
deploy	-11.0094
Login	-11.0094
5)	-11.0097
}\	-11.01
Found	-11.0101
▁validation	-11.0101
nr	-11.0102
blit	-11.0105
Foo	-11.0109
=5,	-11.0111
confirm	-11.0117
=1):	-11.0118
Buffer	-11.0119
▁algorithm	-11.0121
special	-11.0131
/<	-11.014
linalg	-11.0147
▁problem	-11.0149
dag	-11.0154
dates	-11.0159
Changed	-11.0161
pa	-11.0165
▁most	-11.0167
=[\'	-11.0174
levels	-11.0177
▁structure	-11.018
▁sa	-11.0186
algorithm	-11.019
art	-11.019
Required	-11.0192
temperature	-11.0198
orders	-11.02
fft	-11.0204
▁con	-11.0206
mount	-11.021
invoke	-11.0211
64)	-11.0213
=10)	-11.0213
▁numbers	-11.0215
bs	-11.0217
[:-1]	-11.0217
Provider	-11.0219
▁listener	-11.0219
ft	-11.0221
gf	-11.0229
resolution	-11.0232
▁characters	-11.0235
ident	-11.0235
▁buf	-11.0236
constraints	-11.0239
▁Response	-11.024
▁'<	-11.0252
given	-11.0253
300	-11.0254
▁ET	-11.0255
###############	-11.0255
▁during	-11.0256
positive	-11.0264
40	-11.0265
500	-11.0267
ini	-11.027
contrib	-11.028
require	-11.0283
nested	-11.03
ask	-11.0303
aggregate	-11.0308
▁additional	-11.0309
▁symbol	-11.031
boot	-11.0311
chart	-11.0314
Flag	-11.0315
sections	-11.0321
chr	-11.0328
▁depth	-11.0329
dis	-11.0333
▁card	-11.0336
▁"+	-11.0337
charge	-11.0338
batches	-11.0338
/"	-11.0357
▁3),	-11.0361
Space	-11.0368
▁threading	-11.0376
zoom	-11.0377
▁packet	-11.0395
▁Convert	-11.0407
basis	-11.0409
press	-11.0411
▁indent	-11.0412
▁round	-11.0424
▁changed	-11.0431
pro	-11.0435
locator	-11.0436
▁1])	-11.0439
variant	-11.0441
clients	-11.0455
fe	-11.0456
Right	-11.0457
LEFT	-11.0462
▁matching	-11.0468
hat	-11.0473
▁times	-11.0473
reload	-11.0474
▁\'-	-11.0476
▁reader	-11.0478
pix	-11.048
▁transaction	-11.0486
buttons	-11.0489
"},	-11.0491
[1]))	-11.0499
setObjectName	-11.05
loaded	-11.0501
!')	-11.0502
▁tearDown	-11.0507
lm	-11.051
ado	-11.051
▁still	-11.0512
[0]))	-11.0515
native	-11.0517
▁real	-11.052
{}'.	-11.0521
he	-11.0523
Types	-11.0525
Results	-11.0527
▁above	-11.0529
▁uses	-11.053
UP	-11.0533
▁Construct	-11.0538
2')	-11.0542
usr	-11.0547
ST	-11.0557
ES	-11.0559
EC	-11.0559
]["	-11.0565
▁Initialize	-11.0568
operations	-11.0569
▁expression	-11.0578
->	-11.0579
minimum	-11.0591
spider	-11.0594
▁Migration	-11.0597
keras	-11.0597
Optional	-11.0602
hr	-11.0602
material	-11.0604
Hash	-11.0627
/'	-11.0629
scroll	-11.063
creation	-11.0634
logout	-11.064
▁currently	-11.0647
specific	-11.0648
></	-11.065
OP	-11.0653
Properties	-11.0653
exchange	-11.0656
thrift	-11.0666
为	-11.0671
60	-11.0675
translation	-11.0677
lp	-11.0677
é	-11.0677
▁>>	-11.0683
swig	-11.0686
▁high	-11.0687
volumes	-11.0691
▁callable	-11.0704
relation	-11.0704
400	-11.0707
lc	-11.0713
der	-11.0715
alive	-11.072
pull	-11.0737
mysql	-11.0738
Use	-11.0739
bp	-11.074
qty	-11.0743
ylabel	-11.0744
(5)	-11.0752
▁ext	-11.0754
PORT	-11.0763
AND	-11.0765
stdin	-11.0765
▁representing	-11.0766
▁subject	-11.0776
rho	-11.0785
observation	-11.0787
nova	-11.0793
']]	-11.0795
}'.	-11.0796
corr	-11.0797
Region	-11.0797
Interval	-11.0801
logical	-11.0805
leaf	-11.082
="",	-11.082
▁8,	-11.082
det	-11.0823
started	-11.0824
Unable	-11.0828
Abstract	-11.0829
embeddings	-11.0832
NUM	-11.0832
▁implementation	-11.0841
-2	-11.0844
``\	-11.0848
drive	-11.0855
geom	-11.0865
▁writer	-11.0869
bl	-11.0871
general	-11.0871
Bad	-11.0875
COLOR	-11.0878
deps	-11.088
mon	-11.0885
▁await	-11.0889
Scale	-11.0892
PY	-11.0893
Builder	-11.0896
UUID	-11.0896
Users	-11.0896
Items	-11.0899
playlist	-11.0907
▁memory	-11.0912
Selection	-11.0914
(\'<	-11.0916
▁ds	-11.0918
Popen	-11.092
solve	-11.092
CODE	-11.0921
Attributes	-11.0921
attachment	-11.0921
128	-11.0923
Panel	-11.0927
Import	-11.0928
Domain	-11.0932
consumer	-11.0932
azure	-11.0933
▁initialize	-11.0939
Pre	-11.0947
tracks	-11.0951
▁outfile	-11.0952
{}".	-11.0961
assertIsNotNone	-11.0968
ter	-11.0973
27	-11.0985
и	-11.0985
▁simple	-11.1018
getLogger	-11.1019
sm	-11.102
candidate	-11.1024
▁parts	-11.1026
om	-11.1041
ian	-11.1047
Only	-11.1054
▁counter	-11.1056
questions	-11.1062
▁loaded	-11.1063
ary	-11.1064
wrong	-11.1067
fire	-11.1069
updates	-11.107
ga	-11.1075
tcp	-11.1076
2),	-11.1078
half	-11.1084
scatter	-11.1085
+=1	-11.1086
Area	-11.109
▁el	-11.1091
sites	-11.1092
▁go	-11.1103
▁below	-11.1106
Callback	-11.1115
Mapping	-11.1118
UN	-11.112
thumbnail	-11.1133
▁apply	-11.1134
▁details	-11.1138
vlan	-11.1142
sale	-11.1147
addresses	-11.1152
fb	-11.1154
▁7,	-11.1171
Cluster	-11.1173
▁term	-11.1179
▁1000	-11.1181
losses	-11.1184
Board	-11.1185
vectors	-11.1187
iteration	-11.119
sigmoid	-11.1195
>\	-11.1197
amp	-11.1197
formatter	-11.1199
signals	-11.1205
products	-11.1207
][1]	-11.121
symbols	-11.1212
▁####	-11.1214
05	-11.1219
▁standard	-11.122
chunks	-11.1223
Parent	-11.124
stub	-11.1248
readlines	-11.1252
("<	-11.1252
▁qs	-11.1253
("--	-11.1255
Video	-11.1255
▁bot	-11.1258
which	-11.1265
ans	-11.1268
Plot	-11.1269
▁backend	-11.1277
Non	-11.1282
Body	-11.1283
inter	-11.1284
fits	-11.1284
\'\'\'	-11.1295
networks	-11.1296
tex	-11.1298
FLAGS	-11.1299
configs	-11.13
▁100)	-11.1303
▁sigma	-11.1305
HTML	-11.1314
▁identifier	-11.1316
Engine	-11.1319
▁specify	-11.1322
based	-11.1326
Lock	-11.133
▁works	-11.1335
sound	-11.1337
median	-11.1339
Driver	-11.1344
runtime	-11.1344
=["	-11.1344
▁20	-11.1345
disconnect	-11.135
▁'',	-11.1351
neighbors	-11.1355
pay	-11.1356
▁IndexError	-11.136
union	-11.1364
workspace	-11.1367
refs	-11.137
ri	-11.1375
22	-11.138
tv	-11.1382
MainWindow	-11.1383
pretty	-11.1384
iterations	-11.1391
▁const	-11.1394
Single	-11.1396
CC	-11.1399
wraps	-11.1401
▁calling	-11.1402
daemon	-11.1407
2/	-11.1408
ize	-11.1416
2-	-11.1417
shop	-11.1418
segments	-11.1418
)}	-11.142
corpus	-11.1431
frac	-11.144
anchor	-11.1445
Flow	-11.1446
▁starting	-11.1447
quota	-11.1451
▁boolean	-11.1461
aux	-11.1462
lstm	-11.1469
estimator	-11.147
AF	-11.1478
receive	-11.1479
2018	-11.1484
31	-11.1488
▁metric	-11.149
\':\'	-11.149
▁deleted	-11.1491
supported	-11.1499
tau	-11.1499
warnings	-11.15
=100,	-11.1501
DateTime	-11.1508
▁0):	-11.1509
▁IOError	-11.1512
ack	-11.1519
front	-11.1522
manifest	-11.1523
urlopen	-11.1524
tweet	-11.1524
known	-11.1526
``.\	-11.1531
Setting	-11.1533
Do	-11.1542
Stats	-11.1543
Note	-11.1544
▁binary	-11.1549
UTF	-11.1554
▁spider	-11.156
▁"",	-11.1562
TEXT	-11.1564
checker	-11.157
eye	-11.1574
ROOT	-11.1574
Copy	-11.1575
submission	-11.1582
([[	-11.1584
ser	-11.1593
hint	-11.1596
▁choices	-11.1601
▁requested	-11.1602
Case	-11.1611
\\"	-11.1618
BooleanField	-11.1622
Global	-11.1625
▁course	-11.1625
__(**	-11.1629
Points	-11.163
journal	-11.1632
fetchall	-11.1639
heap	-11.1641
2.0	-11.1648
▁contents	-11.165
datasets	-11.1657
mk	-11.1664
tiles	-11.1667
deck	-11.1667
ting	-11.1668
▁distribution	-11.167
33	-11.1686
hits	-11.1686
Dense	-11.1686
Font	-11.1697
Remove	-11.1697
/2	-11.17
gray	-11.1702
▁encoded	-11.171
▁optimizer	-11.1711
Section	-11.1713
Person	-11.1715
lin	-11.1717
dr	-11.1722
99	-11.1723
inline	-11.1723
▁sentence	-11.1724
UI	-11.1726
▁received	-11.1733
bulk	-11.1733
Sequential	-11.1735
minutes	-11.1741
adapter	-11.1742
Print	-11.1748
MIN	-11.1751
Custom	-11.1752
-8")	-11.1754
▁bl	-11.1755
domains	-11.1769
=5)	-11.1776
prior	-11.1776
Func	-11.1777
▁-1)	-11.1777
hub	-11.1781
adj	-11.1781
[1]]	-11.1783
]*	-11.1791
Team	-11.1791
xlabel	-11.1791
'+	-11.1792
▁NOTE	-11.1792
encrypt	-11.1795
Fake	-11.1797
pause	-11.1799
ment	-11.1802
CASCADE	-11.1808
iterable	-11.182
outer	-11.1821
bo	-11.1824
AL	-11.1828
bold	-11.1843
▁100,	-11.1847
▁Creates	-11.1848
26	-11.1852
(_("	-11.1852
topics	-11.1855
▁beta	-11.1858
about	-11.1862
▁defaults	-11.1862
ator	-11.1867
utility	-11.1868
traceback	-11.1872
▁tk	-11.1873
▁elem	-11.1875
(10)	-11.1877
_404(	-11.1885
mt	-11.1886
▁necessary	-11.1891
longitude	-11.1891
-4	-11.1893
▁even	-11.1896
=4,	-11.1898
guess	-11.1899
terminal	-11.1899
▁exclude	-11.19
▁world	-11.1909
▁please	-11.1914
SP	-11.1915
▁inst	-11.1916
▁generator	-11.1917
2])	-11.1938
Next	-11.194
▁tempfile	-11.1943
Random	-11.195
population	-11.1951
way	-11.1959
WIDTH	-11.196
▁define	-11.1962
kwds	-11.1966
501\	-11.1971
decorator	-11.1979
cont	-11.199
\'+	-11.1994
soup	-11.1996
▁Generate	-11.1999
06	-11.2007
▁rec	-11.201
bridge	-11.201
MODE	-11.2011
pwd	-11.2011
tl	-11.2013
suite	-11.2014
▁period	-11.2015
sq	-11.2016
▁Find	-11.2024
fixtures	-11.2028
HOST	-11.2034
▁those	-11.2034
▁instances	-11.2037
[5]	-11.2049
since	-11.2052
Details	-11.2052
quality	-11.2056
vis	-11.2058
08	-11.2065
chi	-11.2066
▁might	-11.2069
piece	-11.2077
assets	-11.2085
sz	-11.2089
▁dimensions	-11.2089
NotImplemented	-11.209
Extension	-11.2094
[1,	-11.2094
▁*=	-11.21
grade	-11.2104
▁average	-11.2106
numeric	-11.211
arm	-11.2114
three	-11.2122
▁Compute	-11.2123
od	-11.2123
Part	-11.2123
▁protocol	-11.2125
Symbol	-11.2132
listen	-11.2134
数据	-11.2138
▁nargs	-11.2138
pip	-11.214
pv	-11.214
▁~	-11.2146
sequences	-11.2152
wallet	-11.2161
▁topic	-11.2163
demo	-11.2163
▁requires	-11.2164
linspace	-11.2165
imgs	-11.2171
tol	-11.2172
alarm	-11.218
robot	-11.2183
spawn	-11.2183
▁Load	-11.2189
ng	-11.2194
RIGHT	-11.2195
ry	-11.2207
installed	-11.2208
utcnow	-11.2209
▁provide	-11.2212
▁threshold	-11.2213
working	-11.2217
direct	-11.2217
realm	-11.2219
comm	-11.2221
agg	-11.2231
hooks	-11.2239
Any	-11.2241
Vec	-11.2243
Doc	-11.2247
tablename	-11.2248
lbl	-11.2253
tolist	-11.2254
Normal	-11.2255
('/')	-11.2267
ticks	-11.2269
▁jsonify	-11.2271
▁pad	-11.2278
objs	-11.2281
▁\'\',	-11.2283
▁desired	-11.2284
▁kind	-11.2286
Script	-11.2288
difference	-11.2295
subset	-11.23
guid	-11.23
▁well	-11.2301
squeeze	-11.2303
describe	-11.2313
grp	-11.2316
pixels	-11.2324
texture	-11.2336
TODO	-11.2337
vert	-11.2339
04	-11.2343
ld	-11.2344
certificate	-11.2348
subplot	-11.2353
▁stderr	-11.2361
^2	-11.2362
buy	-11.2364
▁takes	-11.2364
roi	-11.2366
detect	-11.2367
sid	-11.2373
Distance	-11.2376
argmax	-11.2376
2")	-11.2379
▁successfully	-11.2388
receiver	-11.2395
Send	-11.2397
swap	-11.2398
credit	-11.2398
Socket	-11.2403
colour	-11.241
▁minimum	-11.2412
Common	-11.2413
ks	-11.2421
minor	-11.2426
executable	-11.2428
▁directly	-11.2437
attention	-11.2437
-3	-11.2446
▁"{}	-11.2453
addon	-11.2456
QtGui	-11.2467
0.0	-11.2471
sudo	-11.2472
>'	-11.2481
dtypes	-11.249
alignment	-11.2494
air	-11.2496
()])	-11.2496
browse	-11.2498
callbacks	-11.25
Boolean	-11.2501
Environment	-11.2501
▁control	-11.2502
conditions	-11.2503
▁until	-11.2505
('-	-11.2508
modify	-11.251
java	-11.251
regions	-11.2513
callable	-11.2516
validators	-11.2526
Tool	-11.2526
must	-11.2529
▁correctly	-11.2532
35	-11.2533
rv	-11.2536
routes	-11.2546
Backend	-11.2546
1000	-11.2549
ranges	-11.2555
kb	-11.2556
▁Run	-11.2558
!=	-11.2566
[0	-11.2573
>\',	-11.2578
party	-11.259
▁fetch	-11.2595
OUT	-11.2595
▁disk	-11.2598
ny	-11.2604
Packet	-11.2608
▁raised	-11.262
START	-11.262
SERVER	-11.262
34	-11.2625
trade	-11.2627
Keys	-11.263
cases	-11.2632
mgmt	-11.2634
processing	-11.2636
\'},	-11.2636
是	-11.2637
Edge	-11.2639
additional	-11.2651
▁Calculate	-11.2655
oid	-11.2657
exact	-11.2659
[-1])	-11.2662
▁operator	-11.2663
plane	-11.2669
draft	-11.267
seen	-11.267
▁decimal	-11.2672
▁Tests	-11.2673
▁bias	-11.2675
']),	-11.2679
Active	-11.2679
Main	-11.268
▁60	-11.268
Authorization	-11.2684
Limit	-11.2687
Per	-11.2688
attack	-11.2688
Web	-11.2689
Binary	-11.2693
▁later	-11.2694
connector	-11.2696
Permission	-11.2705
▁future	-11.2706
Member	-11.2711
fg	-11.2715
executor	-11.2717
▁salt	-11.272
}/	-11.2722
assertNotEqual	-11.2723
▁question	-11.2733
ttl	-11.274
▁definition	-11.2746
▁axes	-11.2751
Loader	-11.2751
▁actually	-11.2752
ae	-11.2756
}\\	-11.2759
]+	-11.2763
density	-11.2764
bases	-11.2767
+=	-11.2771
Identifier	-11.2776
nRaises	-11.2778
▁ordering	-11.2779
]],	-11.2779
tri	-11.2782
renderer	-11.2785
subscribe	-11.2789
1.0	-11.2791
▁'/'	-11.2794
ada	-11.2795
([0,	-11.2798
({})	-11.2804
▁marker	-11.2805
▁reward	-11.281
[0]),	-11.2814
logged	-11.2824
中	-11.2825
sol	-11.2826
bio	-11.2833
▁{}\'.	-11.284
▁OSError	-11.2843
Tab	-11.2844
Seq	-11.2846
7,	-11.2849
Len	-11.2851
fw	-11.2852
capture	-11.2857
QLabel	-11.2857
measure	-11.2857
collections	-11.2857
break	-11.2858
picture	-11.2858
retrieve	-11.2863
TOKEN	-11.2866
▁installed	-11.2874
AUTH	-11.2876
Child	-11.2878
(1))	-11.2878
rectangle	-11.2878
management	-11.2881
nom	-11.2881
▁targets	-11.2883
serializers	-11.2892
gap	-11.29
DE	-11.2903
locals	-11.2906
MS	-11.291
todo	-11.2912
Raw	-11.2917
▁My	-11.293
▁angle	-11.2932
2\',	-11.2937
strptime	-11.2939
minute	-11.2939
lu	-11.2944
thresh	-11.2945
avatar	-11.2954
inverse	-11.2961
CA	-11.2963
Parse	-11.2963
▁compare	-11.2969
rng	-11.297
▁[2,	-11.2972
▁solution	-11.2972
parents	-11.2975
▁nothing	-11.2985
wav	-11.2989
ag	-11.2993
Language	-11.2997
ck	-11.3002
remaining	-11.301
spin	-11.3011
oo	-11.3013
▁merge	-11.3013
▁0.,	-11.3016
▁(3,	-11.3022
▁icon	-11.3027
Down	-11.3028
▁positive	-11.3028
orientation	-11.3029
1[	-11.3032
▁special	-11.3036
MP	-11.3037
ram	-11.3042
faces	-11.3047
spacing	-11.3049
▁2]	-11.3051
▁win	-11.3056
parallel	-11.3057
ies	-11.3059
iloc	-11.3059
▁0.1	-11.3066
▁lists	-11.3066
fh	-11.3066
▁cases	-11.3071
64,	-11.3071
(\'-	-11.3072
▁nb	-11.3077
di	-11.3079
History	-11.3079
▁know	-11.3082
agents	-11.3082
[-1].	-11.3082
descriptor	-11.3083
arc	-11.3091
▁ans	-11.3094
BatchNorm	-11.3098
Env	-11.3098
ao	-11.31
readonly	-11.3102
▁"/"	-11.3111
▁branch	-11.3111
36	-11.3112
StringIO	-11.3113
▁retrieve	-11.3114
does	-11.3122
generated	-11.3123
▁bucket	-11.3126
audit	-11.3132
void	-11.3135
ftype	-11.3138
gain	-11.3139
recipe	-11.3139
WARNING	-11.3141
patterns	-11.3145
2],	-11.3145
fm	-11.3148
▁Gets	-11.3149
gc	-11.315
ANY	-11.315
heading	-11.3154
OF	-11.3155
▁pair	-11.3156
dashboard	-11.3157
ru	-11.3159
equals	-11.3165
acquire	-11.3179
29	-11.318
interp	-11.3183
(-1)	-11.3186
(4)	-11.319
▁credentials	-11.319
thing	-11.3194
Co	-11.3198
ea	-11.3199
runs	-11.3206
1],	-11.3206
publisher	-11.3209
Memory	-11.3211
07	-11.3213
website	-11.3217
ArgumentParser	-11.3223
▁wrong	-11.3224
cover	-11.3225
の	-11.3226
▁mu	-11.3228
▁tx	-11.3229
checksum	-11.3232
secure	-11.3234
define	-11.3235
ur	-11.3242
trial	-11.3242
Pass	-11.3242
profiles	-11.3242
ln	-11.3244
ordered	-11.3245
cid	-11.325
▁1.0,	-11.3255
too	-11.3256
\'][	-11.3258
'\	-11.3262
pressed	-11.3269
Namespace	-11.327
combo	-11.3272
fold	-11.3273
coroutine	-11.3273
constructor	-11.3276
employee	-11.3279
license	-11.3283
▁theta	-11.3284
▁Do	-11.3284
▁Read	-11.3286
bf	-11.3291
а	-11.3294
0000	-11.3295
▁under	-11.3298
▁worker	-11.33
bd	-11.3304
▁bit	-11.3309
toggle	-11.331
tell	-11.3312
multiply	-11.3313
sl	-11.3314
normalized	-11.3318
Utils	-11.3322
say	-11.3324
=[],	-11.3334
mobile	-11.3335
Back	-11.3336
▁determine	-11.3338
▁arrays	-11.3338
cn	-11.3345
launch	-11.3346
dataframe	-11.3353
coin	-11.3354
[3])	-11.3356
decimal	-11.3358
Cmd	-11.3359
SQL	-11.3361
neutron	-11.3361
▁inside	-11.3362
removed	-11.3363
▁something	-11.3363
48	-11.3368
([],	-11.3368
▁collections	-11.3373
TS	-11.3376
queries	-11.3378
▁look	-11.3378
wt	-11.3379
_2_	-11.3383
Attr	-11.3384
Export	-11.3386
▁checks	-11.3392
para	-11.3397
Problem	-11.3397
ceil	-11.3403
errno	-11.3404
2*	-11.3409
▁dx	-11.3414
Expr	-11.3422
Track	-11.3423
▁install	-11.3424
pod	-11.3425
sessions	-11.3426
coef	-11.3436
bt	-11.3436
typ	-11.3437
[1:])	-11.344
gp	-11.3443
hass	-11.3445
locked	-11.345
Power	-11.3453
={},	-11.3462
▁pretty	-11.3462
xx	-11.3466
ive	-11.3472
eta	-11.3472
▁"{	-11.3481
▁known	-11.3487
resolver	-11.3488
▁inner	-11.3491
LE	-11.3495
rr	-11.3496
filenames	-11.3496
ization	-11.3497
coverage	-11.3497
sizer	-11.3499
▁selection	-11.35
▁short	-11.3505
fl	-11.3507
("")	-11.3509
▁retry	-11.351
ML	-11.3512
EN	-11.3512
Screen	-11.3512
wd	-11.352
books	-11.3524
▁records	-11.3525
Full	-11.3526
▁person	-11.3529
markup	-11.353
▁orig	-11.3533
LINE	-11.3538
▁byte	-11.3539
ten	-11.355
▁makes	-11.3552
ka	-11.3554
Fields	-11.3554
255	-11.3556
Bit	-11.3557
▁team	-11.3566
coeff	-11.3569
2000	-11.357
▁2))	-11.357
Media	-11.3572
perform	-11.3576
▁predictions	-11.3576
motion	-11.3577
SE	-11.3578
av	-11.358
eg	-11.3585
possible	-11.3587
▁metrics	-11.3587
VALUE	-11.3589
fitness	-11.3594
peak	-11.3597
nav	-11.3602
nm	-11.3603
Exit	-11.3607
INT	-11.3614
!"	-11.3619
/\'	-11.3622
statistics	-11.3624
Tags	-11.363
Nodes	-11.3634
species	-11.3635
FORMAT	-11.3637
▁origin	-11.3641
critical	-11.3646
traj	-11.3646
ldap	-11.3647
MM	-11.365
soft	-11.3653
("{}	-11.3654
sg	-11.3654
▁creating	-11.3656
svg	-11.3665
ele	-11.3665
▁article	-11.3666
Contact	-11.3666
large	-11.3667
▁cr	-11.367
Mask	-11.367
vendor	-11.3671
places	-11.3673
▁dy	-11.3675
CR	-11.3686
▁20,	-11.3694
have	-11.3699
▁Re	-11.3703
--------\	-11.3715
▁Whether	-11.3715
MODEL	-11.3716
▁Sets	-11.3717
percentage	-11.3717
AT	-11.3718
rp	-11.372
3',	-11.3721
matching	-11.3721
Draw	-11.3722
Bind	-11.3722
****************	-11.3726
flux	-11.3728
▁reply	-11.3728
compat	-11.373
▁made	-11.3731
▁tm	-11.3733
boundary	-11.3736
mx	-11.3737
az	-11.3737
market	-11.3739
Loss	-11.3741
got	-11.3744
Top	-11.3746
AC	-11.3749
▁complete	-11.375
▁normalize	-11.375
terminate	-11.375
▁duration	-11.3751
=100)	-11.3753
between	-11.3755
sqlite	-11.3758
Enable	-11.3758
clf	-11.3761
guest	-11.377
PUT	-11.377
streams	-11.3773
ance	-11.3774
Information	-11.3775
atomic	-11.3776
▁perform	-11.3776
70	-11.3778
▁traceback	-11.3778
Remote	-11.3782
sink	-11.3785
literal	-11.3789
Worker	-11.3798
▁ctypes	-11.3806
ht	-11.3812
wrapped	-11.3823
Axis	-11.3828
inds	-11.3829
▁bad	-11.383
1234	-11.3831
▁2],	-11.3833
twitter	-11.3833
urn	-11.3833
getvalue	-11.3837
▁place	-11.3838
45	-11.3839
tbl	-11.3841
plt	-11.3845
▁good	-11.3848
▁strides	-11.3856
▁argparse	-11.386
rmtree	-11.3861
stamp	-11.3871
fee	-11.3881
Bytes	-11.3885
Pattern	-11.3887
75	-11.3889
▁segment	-11.389
defined	-11.389
2015	-11.3893
eth	-11.39
▁updates	-11.3901
wsgi	-11.3901
Timestamp	-11.3906
▁ignored	-11.3912
CH	-11.3912
gb	-11.3912
scenario	-11.3912
csrf	-11.3919
=-1)	-11.3927
superuser	-11.3932
oc	-11.3934
si	-11.3935
▁progress	-11.3935
Timer	-11.3937
数	-11.3937
Has	-11.394
--------------	-11.3941
DS	-11.3942
sampling	-11.3945
broadcast	-11.3945
▁issue	-11.3951
▁QtCore	-11.3953
viewer	-11.3953
hexdigest	-11.3954
96	-11.3962
Two	-11.3967
1\')	-11.3971
candidates	-11.3984
subs	-11.3991
一	-11.3991
UPDATE	-11.3992
authors	-11.3998
qt	-11.4001
\\\'	-11.4001
va	-11.4007
idle	-11.4013
tgt	-11.4019
manual	-11.402
Temp	-11.4021
▁constants	-11.4022
'%	-11.4024
##############	-11.4027
ModelAdmin	-11.4037
registered	-11.4042
pat	-11.4042
▁tile	-11.4047
IMAGE	-11.4048
daily	-11.4051
duplicate	-11.4052
neighbor	-11.4053
=4)	-11.4054
▁sender	-11.4056
Geo	-11.4059
Equal	-11.4059
authenticate	-11.4065
▁against	-11.4066
cwd	-11.4067
authorization	-11.4069
need	-11.407
▁fmt	-11.4073
containers	-11.4074
processes	-11.4074
ij	-11.4075
Writer	-11.4076
iface	-11.4076
">	-11.4077
online	-11.4077
ticker	-11.4079
="%	-11.4085
cg	-11.4089
strict	-11.409
splitlines	-11.4091
▁fid	-11.4092
Bot	-11.4097
3.0	-11.41
▁named	-11.4107
decrypt	-11.4111
vi	-11.4111
getcwd	-11.4115
gather	-11.4117
2016	-11.412
Cursor	-11.4124
mv	-11.4127
ins	-11.4128
instrument	-11.4128
nickname	-11.4128
Find	-11.4139
▁prediction	-11.4139
Running	-11.4143
▁signature	-11.4146
APP	-11.415
pf	-11.4153
▁dialog	-11.4158
Example	-11.4164
Surface	-11.4168
matmul	-11.4169
votes	-11.4169
Gen	-11.417
}]	-11.4174
Failure	-11.4174
ib	-11.4177
documents	-11.4181
▁etc	-11.4185
Make	-11.4187
▁converted	-11.4187
variance	-11.4189
xf	-11.419
{1}	-11.4192
fraction	-11.4195
linux	-11.4197
Timeout	-11.4201
getter	-11.4204
。	-11.4205
water	-11.4212
logo	-11.4215
randn	-11.4217
MD	-11.4219
fasta	-11.4221
Hook	-11.4221
gid	-11.4222
money	-11.4224
pitch	-11.4226
sentences	-11.4227
multiplier	-11.4233
▁FIXME	-11.4234
Db	-11.4241
splitext	-11.4242
pygame	-11.425
FileName	-11.4257
hw	-11.4265
restart	-11.4266
pandas	-11.4271
▁due	-11.4279
probability	-11.428
3:	-11.4281
lim	-11.4282
misc	-11.4285
▁follow	-11.4292
ray	-11.4298
dependency	-11.4305
wall	-11.4307
Summary	-11.4308
))]	-11.4311
[3],	-11.4313
Angle	-11.4315
2[	-11.4316
season	-11.4318
▁\'/\'	-11.432
▁permission	-11.4333
ling	-11.4335
spaces	-11.4335
Core	-11.4336
nSee	-11.4336
▁filtered	-11.4337
▁coordinate	-11.4339
oper	-11.435
was	-11.4352
beam	-11.4352
▁Solution	-11.4354
nto	-11.4354
six	-11.4355
▁serializers	-11.4357
follow	-11.4357
Switch	-11.4361
TAG	-11.4366
Arg	-11.4367
▁internal	-11.4373
CREATE	-11.438
09	-11.4382
clause	-11.4383
▁bottom	-11.4386
▁fixed	-11.4387
DC	-11.4388
nl	-11.4395
Success	-11.4397
meter	-11.4399
sw	-11.44
eb	-11.4402
crypto	-11.4404
tu	-11.4407
')),	-11.441
Structure	-11.4411
)],	-11.4413
kv	-11.4416
▁Build	-11.4416
={}	-11.4418
purchase	-11.4418
retries	-11.4418
▁radius	-11.4419
into	-11.442
Your	-11.4421
[0]:	-11.4422
rst	-11.4427
001	-11.4432
IF	-11.4439
ate	-11.4442
▁cover	-11.4442
gender	-11.4443
▁12,	-11.4459
Win	-11.4462
▁metavar	-11.4462
Argument	-11.4465
▁Defaults	-11.4465
projection	-11.4467
▁Verify	-11.4468
▁override	-11.4472
compiler	-11.4478
▁exceptions	-11.4479
Formatter	-11.448
rl	-11.4481
▁GPIO	-11.4482
Authentication	-11.4483
dw	-11.4483
construct	-11.4487
▁iterable	-11.4487
both	-11.4492
helpers	-11.4494
▁construct	-11.4499
Program	-11.4499
inplace	-11.4501
▁2*	-11.4506
holder	-11.4508
▁automatically	-11.4509
Classifier	-11.451
+'	-11.4511
than	-11.4512
不	-11.4529
arrow	-11.4536
▁3],	-11.4537
toolbar	-11.4539
nExamples	-11.454
histogram	-11.4541
▁Only	-11.4541
到	-11.4542
rg	-11.4546
fo	-11.4549
pot	-11.4549
food	-11.455
mult	-11.4552
PER	-11.4552
Register	-11.4553
▁Ensure	-11.4555
KeyError	-11.4555
signed	-11.4556
rhs	-11.4562
=200)	-11.4563
nome	-11.4563
▁5:	-11.4564
unused	-11.4564
▁3))	-11.4565
Center	-11.4566
▁scores	-11.4583
(100,	-11.4584
▁cs	-11.4585
mf	-11.4588
▁background	-11.459
slider	-11.4591
Day	-11.4595
TABLE	-11.4595
popup	-11.4597
tokenize	-11.4598
vim	-11.4607
"%(	-11.4613
ftp	-11.4619
512	-11.462
else	-11.4621
caption	-11.4624
▁2.0	-11.4629
radio	-11.4636
Endpoint	-11.4636
ef	-11.4637
checked	-11.4637
▁low	-11.4639
recipient	-11.4641
relationship	-11.4641
cpp	-11.4646
den	-11.4647
Decimal	-11.4654
Constant	-11.4661
Debug	-11.4664
▁negative	-11.4672
uni	-11.4676
pen	-11.4678
"][	-11.4679
Book	-11.4684
▁iteration	-11.4689
AS	-11.4694
_1_	-11.4694
genes	-11.4696
▁pkg	-11.47
authentication	-11.47
Notification	-11.4707
▁room	-11.471
survey	-11.471
Direction	-11.4713
Definition	-11.4714
ou	-11.4714
▁rel	-11.4718
nonzero	-11.4719
wf	-11.472
intersection	-11.4724
our	-11.4728
converter	-11.4735
formula	-11.4735
▁fh	-11.4749
▁according	-11.4753
groupby	-11.4755
Other	-11.4757
gm	-11.4765
值	-11.4765
▁own	-11.4769
populate	-11.4772
▁200:	-11.4772
but	-11.4773
increment	-11.4774
repos	-11.4775
pol	-11.4777
Http	-11.4779
000	-11.478
ko	-11.4781
mirror	-11.4782
[0]['	-11.4783
2.5	-11.4786
▁subclass	-11.4786
2017	-11.4786
Done	-11.4791
imshow	-11.4793
▁along	-11.4794
▁applied	-11.4795
pdb	-11.4796
sdk	-11.48
led	-11.4803
ordering	-11.4803
Tile	-11.4804
mappings	-11.4807
orm	-11.4807
▁pixel	-11.4812
php	-11.4817
▁sock	-11.4823
sell	-11.4825
qr	-11.4827
FS	-11.4828
Res	-11.4832
requested	-11.4834
story	-11.4835
rx	-11.4839
disp	-11.4847
aliases	-11.4849
expires	-11.4849
``,	-11.485
Sort	-11.4853
201	-11.4857
preload	-11.4858
Condition	-11.4862
▁defaultdict	-11.4865
tip	-11.4869
▁'{}	-11.4871
starting	-11.4874
lam	-11.488
kl	-11.488
under	-11.4887
Processor	-11.4888
}"	-11.4888
scripts	-11.4892
skill	-11.4893
bed	-11.4901
damage	-11.4903
sentinel	-11.4904
EVENT	-11.4906
HEIGHT	-11.4906
▁repository	-11.4907
▁Simple	-11.491
▁appropriate	-11.4914
coordinate	-11.4914
hdf	-11.4919
scaling	-11.4923
fac	-11.4927
recent	-11.4929
>\')	-11.493
except	-11.4931
wind	-11.4936
hashes	-11.4937
▁frequency	-11.4939
spectrum	-11.4942
86	-11.4945
▁trigger	-11.4949
tabs	-11.495
unlink	-11.495
▁execution	-11.4952
▁remaining	-11.4953
answers	-11.4954
spam	-11.4955
ak	-11.4956
fileName	-11.4956
IR	-11.4957
assertNotIn	-11.4962
\']]	-11.4963
pick	-11.4966
▁letter	-11.4967
▁library	-11.4973
inherit	-11.4974
met	-11.4976
Mat	-11.4977
prep	-11.4977
anonymous	-11.4978
vertical	-11.4983
Train	-11.4987
Generic	-11.4992
AP	-11.4993
▁IP	-11.4994
Encoder	-11.4998
▁ord	-11.5
There	-11.5012
CLASS	-11.5014
people	-11.5019
▁Parse	-11.5019
cmap	-11.5024
regularizer	-11.5028
tuples	-11.5029
▁processing	-11.5035
bug	-11.5035
Ids	-11.5035
(\'/\')	-11.504
▁suffix	-11.5041
letters	-11.5043
chdir	-11.5047
▁dp	-11.5047
在	-11.5053
("-	-11.5054
bw	-11.5061
Multiple	-11.5062
▁comp	-11.5062
horizontal	-11.5067
community	-11.5068
▁pairs	-11.507
Unicode	-11.5074
fi	-11.5075
0.1	-11.5075
yield	-11.5076
vc	-11.5077
upgrade	-11.508
ReLU	-11.5083
ut	-11.5087
ivar	-11.5091
contacts	-11.5093
uom	-11.5093
()}	-11.5097
Work	-11.5098
approx	-11.5113
checks	-11.5114
categorical	-11.5114
▁timedelta	-11.512
(200,	-11.5121
gi	-11.5125
▁retval	-11.5127
cy	-11.5133
Real	-11.5135
Term	-11.5139
Flags	-11.5146
middle	-11.5154
Iterator	-11.5155
tw	-11.5174
59	-11.5174
BAD	-11.5174
Sync	-11.5178
>")	-11.5187
modes	-11.5188
Events	-11.52
xsd	-11.5203
INSERT	-11.5206
bindings	-11.5206
fact	-11.5209
overlap	-11.5209
▁scrapy	-11.5209
km	-11.5212
iprot	-11.5221
▁lookup	-11.5222
ios	-11.5225
▁included	-11.5225
Img	-11.5225
setEnabled	-11.5226
▁lang	-11.5228
choose	-11.523
PS	-11.5234
▁gradient	-11.5239
Signature	-11.5241
65	-11.5243
▁Py	-11.5244
▁nx	-11.5246
▁pandas	-11.5251
0:	-11.5253
▁9,	-11.5259
▁255,	-11.5265
mix	-11.5265
polygon	-11.5271
protected	-11.5272
deprecated	-11.5272
fullname	-11.5281
participant	-11.5283
▁0])	-11.529
facts	-11.5291
grant	-11.5291
means	-11.5294
MSG	-11.5297
passed	-11.5298
what	-11.5299
1])	-11.53
Sprite	-11.53
▁atom	-11.5306
wise	-11.5307
')\	-11.5308
▁mid	-11.531
101	-11.5314
arrays	-11.5317
undo	-11.5317
Fit	-11.5318
55	-11.5318
▁Write	-11.532
ating	-11.5321
fragment	-11.5325
splits	-11.5327
mongo	-11.5335
▁{0}".	-11.5335
Prefix	-11.5338
learn	-11.5338
cu	-11.5341
excel	-11.5345
After	-11.5349
Me	-11.5349
own	-11.535
▁around	-11.5355
INDEX	-11.5358
formatted	-11.5364
▁calc	-11.5366
▁MagicMock	-11.5366
Scope	-11.5367
AlterField	-11.5368
deployment	-11.5374
perms	-11.5375
Sensor	-11.5376
dirty	-11.538
SSL	-11.5384
...')	-11.5386
nArguments	-11.5391
▁reading	-11.5397
magic	-11.54
▁choose	-11.5405
rewards	-11.5407
TYPES	-11.5408
likelihood	-11.5411
cons	-11.5412
userid	-11.5412
у	-11.5416
assertIs	-11.542
Editor	-11.5422
2019	-11.5425
▁[3,	-11.5425
foobar	-11.5425
transactions	-11.5426
53	-11.5427
▁para	-11.5429
classification	-11.543
recursive	-11.5434
)+	-11.5436
Allow	-11.5437
[2].	-11.5442
▁ftype	-11.5443
instruction	-11.5444
▁constructor	-11.5444
{}\\	-11.5445
thumb	-11.5446
1.2	-11.5447
ub	-11.5448
you	-11.5452
Notes	-11.5457
PREFIX	-11.5458
▁did	-11.5459
▁Try	-11.5459
representation	-11.5462
▁decorator	-11.5464
▁learning	-11.5471
▁working	-11.5473
EMAIL	-11.5473
Cost	-11.5474
▁proc	-11.5476
frozen	-11.5481
Scene	-11.5481
games	-11.5482
offsets	-11.5484
Metric	-11.5486
DOWN	-11.5487
EX	-11.5487
Author	-11.5488
Choice	-11.549
enemy	-11.5494
claim	-11.55
9,	-11.55
Insert	-11.5503
ability	-11.5504
abstract	-11.5507
Windows	-11.5509
bid	-11.5514
deep	-11.552
▁rest	-11.5521
▁pyxb	-11.5521
>",	-11.5521
ho	-11.5523
▁noise	-11.5525
human	-11.5525
"]))	-11.5525
Release	-11.5526
▁assign	-11.5529
sat	-11.553
▁turn	-11.5531
Icon	-11.5538
fps	-11.554
▁allows	-11.5543
alter	-11.5544
▁dummy	-11.5552
Detail	-11.5553
AI	-11.5557
▁visit	-11.5558
Dist	-11.5558
even	-11.5559
▁Should	-11.5561
nNote	-11.5561
infos	-11.5563
disc	-11.5564
▁fix	-11.5565
Segment	-11.5566
▁ast	-11.5577
minus	-11.5578
SUCCESS	-11.559
Question	-11.5592
>',	-11.5598
Period	-11.5603
nic	-11.5607
58	-11.5608
▁inspect	-11.5612
Curve	-11.5614
genre	-11.5617
▁bbox	-11.562
An	-11.5624
ted	-11.5627
SS	-11.5636
Usage	-11.5638
east	-11.5645
definitions	-11.5645
distinct	-11.5648
分	-11.5648
surf	-11.565
▁visited	-11.5651
mpl	-11.5653
LOGGER	-11.5653
land	-11.5654
▁overwrite	-11.5655
latent	-11.5657
rates	-11.5658
STR	-11.5661
buckets	-11.5665
verts	-11.5666
Bucket	-11.5668
Chain	-11.5668
gw	-11.567
0',	-11.5675
fin	-11.5676
▁3]	-11.5676
tensors	-11.5677
Year	-11.5677
▁1.0)	-11.5679
▁written	-11.5681
radians	-11.5682
Registry	-11.5687
▁statement	-11.5688
▁represents	-11.5695
32(	-11.5699
Split	-11.57
passwd	-11.5701
▁adding	-11.5705
ol	-11.5711
Comp	-11.5715
endpoints	-11.5719
(2*	-11.572
PASSWORD	-11.572
bullet	-11.5721
alg	-11.5724
AB	-11.5725
▁0.5)	-11.5729
▁wrapped	-11.573
Factor	-11.5733
▁delimiter	-11.5734
Topic	-11.5734
delivery	-11.5735
generation	-11.5738
fetchone	-11.5738
Weight	-11.5739
▁colors	-11.574
е	-11.5741
IC	-11.5748
partitions	-11.5751
factors	-11.5759
phrase	-11.576
checkout	-11.5761
needed	-11.5768
▁parsing	-11.5768
Cancel	-11.5771
▁0.5,	-11.5773
▁give	-11.5774
3::	-11.5775
▁pipeline	-11.5775
gas	-11.5777
flash	-11.5778
markdown	-11.5778
nonce	-11.5779
subclass	-11.5783
asyncio	-11.5783
▁{1}	-11.5786
▁ob	-11.579
Activity	-11.579
SUB	-11.5796
150	-11.5797
('<	-11.5798
bob	-11.58
Library	-11.5801
▁movie	-11.5802
Ex	-11.5802
sd	-11.5805
▁sensor	-11.5806
-------------	-11.5806
des	-11.5807
gram	-11.5809
ctxt	-11.5814
secs	-11.5815
loading	-11.5818
jar	-11.5821
rollback	-11.5825
forum	-11.5827
Dropout	-11.5827
Feed	-11.5829
▁processed	-11.583
ke	-11.5833
cannot	-11.5833
joint	-11.5834
▁sets	-11.5836
Some	-11.5838
NULL	-11.5843
bone	-11.5848
CT	-11.5851
Got	-11.5852
/')	-11.5853
▁platform	-11.586
DATE	-11.5862
Play	-11.5866
')]	-11.5867
here	-11.5867
AWS	-11.5874
sv	-11.588
slide	-11.5881
something	-11.5882
indicator	-11.5882
med	-11.5884
degrees	-11.589
distances	-11.589
wp	-11.5892
▁slice	-11.5896
stem	-11.5897
feedback	-11.5907
feats	-11.5913
▁formatted	-11.5913
LA	-11.5918
37	-11.5918
due	-11.5929
**2)	-11.5929
Mean	-11.593
Bool	-11.5931
[0][1]	-11.5933
FIELD	-11.5937
merged	-11.5938
slices	-11.5942
tic	-11.5942
180	-11.5944
inspect	-11.5945
slave	-11.5947
tester	-11.5948
allocation	-11.595
masks	-11.5951
{}\'.	-11.5951
trip	-11.5953
cutoff	-11.5954
gradients	-11.5956
2014	-11.5956
▁0.0)	-11.5958
▁flash	-11.5963
10.0	-11.5963
Upload	-11.5963
ite	-11.5966
▁precision	-11.5968
relations	-11.5968
idxs	-11.5971
10,	-11.5976
▁better	-11.5976
lot	-11.5977
Repository	-11.5987
lhs	-11.5988
hdr	-11.5989
weather	-11.5991
▁Dummy	-11.5992
hl	-11.5992
Selected	-11.5992
▁ImportError	-11.5996
GROUP	-11.5998
house	-11.6001
deletion	-11.6003
▁act	-11.6003
discard	-11.6004
ence	-11.6007
nFor	-11.6014
Diff	-11.6014
tls	-11.6015
Route	-11.6016
PROJECT	-11.6019
Pair	-11.6019
adv	-11.6022
dark	-11.6022
ber	-11.6024
setitem	-11.6024
Be	-11.6031
39	-11.6038
accepted	-11.6042
▁creates	-11.6044
44	-11.6046
squared	-11.6049
vo	-11.6049
sky	-11.6053
caller	-11.6056
stroke	-11.6058
▁abort	-11.606
xff	-11.606
Adapter	-11.6064
cidr	-11.6068
globals	-11.6072
Statement	-11.6072
TC	-11.6076
discriminator	-11.6079
overlay	-11.608
savefig	-11.609
scaled	-11.6094
▁gamma	-11.61
truth	-11.6105
og	-11.6106
TR	-11.6107
4.0	-11.6115
PC	-11.6116
▁anything	-11.6116
It	-11.612
availability	-11.6127
preds	-11.6127
sf	-11.6132
Valid	-11.6134
ground	-11.6136
study	-11.6144
Mod	-11.6148
already	-11.6149
▁enable	-11.6152
▁Given	-11.6152
[:2]	-11.6153
Struct	-11.6154
▁registered	-11.6158
Subject	-11.6161
requirements	-11.6162
hero	-11.6167
Fill	-11.6168
▁fails	-11.6169
CS	-11.6173
Validation	-11.6174
SECRET	-11.618
spot	-11.6181
wheel	-11.6182
centers	-11.6186
Pipeline	-11.6187
с	-11.6188
▁href	-11.6191
▁sign	-11.6192
▁builder	-11.6198
Lines	-11.62
validated	-11.6202
▁deserialized	-11.6204
DO	-11.621
NONE	-11.621
transformer	-11.6211
返回	-11.6212
▁Otherwise	-11.6216
文件	-11.6216
Speed	-11.6217
sr	-11.6219
providers	-11.6222
omega	-11.6225
tot	-11.6226
▁pragma	-11.6227
completion	-11.6228
via	-11.623
masked	-11.6232
bootstrap	-11.6237
articles	-11.6238
▁depends	-11.6239
Selector	-11.624
LENGTH	-11.624
=_("	-11.6244
lag	-11.625
za	-11.6252
Pr	-11.6253
UTC	-11.6253
patient	-11.6254
▁XML	-11.6256
YLeaf	-11.6257
tok	-11.6257
Idx	-11.6262
trees	-11.6264
discount	-11.6264
CF	-11.6266
RA	-11.6266
voice	-11.6268
▁creation	-11.6269
VM	-11.6271
ot	-11.6272
▁[('	-11.6272
▁[{'	-11.6272
▁200,	-11.6277
▁probability	-11.6278
genome	-11.6281
Ip	-11.6281
grads	-11.6282
Training	-11.6287
Customer	-11.629
▁less	-11.6291
tanh	-11.6293
ET	-11.6294
latex	-11.6294
▁face	-11.6296
{{	-11.63
TIMEOUT	-11.6301
▁supplied	-11.6305
moving	-11.6315
ansible	-11.6316
=\'\',	-11.6316
Lib	-11.6319
snippet	-11.632
▁simulation	-11.6321
LI	-11.6325
Received	-11.6326
circuit	-11.6328
NA	-11.6328
▁8)	-11.6335
时	-11.6336
Inline	-11.6337
▁6)	-11.6348
syntax	-11.635
Constraint	-11.6359
▁candidate	-11.6362
Reg	-11.6363
branches	-11.6368
CO	-11.6368
fk	-11.6369
resume	-11.6371
floating	-11.6372
▁tuples	-11.6373
(0.0,	-11.6374
Reset	-11.6377
AA	-11.6379
6)	-11.6381
FieldEnd	-11.6382
DT	-11.6385
communicate	-11.6385
▁BeautifulSoup	-11.6392
strand	-11.6393
hold	-11.6395
▁pixels	-11.6396
Zero	-11.6396
migration	-11.6399
▁orm	-11.64
digit	-11.6401
triggered	-11.6403
collector	-11.6406
"]]	-11.6409
tier	-11.6413
psi	-11.6413
COUNT	-11.6417
jump	-11.6419
>%	-11.6423
legacy	-11.6423
▁Fake	-11.6424
highlight	-11.6424
csr	-11.6433
nearest	-11.6436
bag	-11.6437
trainable	-11.6438
-10	-11.6439
Article	-11.644
quad	-11.6441
\']),	-11.6445
sphere	-11.6445
CACHE	-11.6447
USE	-11.645
kwarg	-11.6453
touch	-11.6455
setValue	-11.6458
Click	-11.6458
▁enough	-11.646
▁Parameters	-11.646
ylim	-11.6463
courses	-11.6464
OUTPUT	-11.6465
=200,	-11.6469
syn	-11.6473
-5	-11.6475
+\'	-11.6481
FOR	-11.6482
figsize	-11.6482
ModelForm	-11.6482
Identity	-11.6486
lf	-11.6486
metaclass	-11.649
creds	-11.649
Room	-11.6492
▁\'{}\'	-11.6497
▁implement	-11.6499
torrent	-11.6502
Con	-11.6504
▁Now	-11.6506
pkl	-11.6507
▁atol	-11.6508
Character	-11.6508
shot	-11.6513
▁checking	-11.6515
perf	-11.6519
Actions	-11.653
Connect	-11.6533
scopes	-11.6539
▁properly	-11.6542
INPUT	-11.6544
serve	-11.6546
Util	-11.6548
oprot	-11.6548
▁hit	-11.6549
challenge	-11.6549
56	-11.6551
markers	-11.6552
▁three	-11.6555
(6,	-11.6555
▁sc	-11.6557
Light	-11.6558
nof	-11.6562
1*	-11.6563
opened	-11.6564
Disk	-11.6565
▁useful	-11.6566
Dummy	-11.6566
▁snapshot	-11.6569
Distribution	-11.6572
finder	-11.6573
BytesIO	-11.6574
ACTION	-11.658
nA	-11.658
visibility	-11.658
▁seen	-11.658
▁modified	-11.6584
motor	-11.6586
mapped	-11.6589
▁evaluate	-11.6589
▁individual	-11.659
adjust	-11.6594
quick	-11.6596
]}	-11.6597
Created	-11.6597
bm	-11.6604
Setup	-11.6605
1"	-11.6605
+1):	-11.6607
▁everything	-11.6609
出	-11.6609
▁Delete	-11.661
au	-11.6611
▁partial	-11.6611
▁"":	-11.6616
catch	-11.6623
policies	-11.6626
▁backup	-11.6633
dead	-11.6635
[1]),	-11.6636
Amount	-11.6637
sensitive	-11.6638
▁contact	-11.6638
BE	-11.6638
▁rotation	-11.6639
Course	-11.6639
▁eps	-11.664
▁assigned	-11.6643
1':	-11.6644
-9	-11.6647
jwt	-11.6651
Analysis	-11.6652
ens	-11.6653
assertContains	-11.6654
lex	-11.6657
TCP	-11.6659
▁matched	-11.6664
▁failure	-11.6666
▁gl	-11.6666
ized	-11.6667
combine	-11.6667
reports	-11.6668
irc	-11.6669
▁enter	-11.6672
que	-11.6674
charset	-11.6674
RED	-11.6679
Car	-11.668
cipher	-11.6682
▁authentication	-11.6682
(8,	-11.6684
xc	-11.6684
▁HTML	-11.6685
nIt	-11.6686
3-	-11.6687
ban	-11.6689
then	-11.6689
Camera	-11.6691
▁#--------------	-11.6691
trust	-11.6696
topology	-11.6696
street	-11.6698
CSV	-11.6699
▁greater	-11.67
reject	-11.6709
particles	-11.6719
▁machine	-11.6721
Spider	-11.6721
every	-11.6721
Null	-11.6722
Cloud	-11.6723
有	-11.6725
▁ev	-11.6728
\'%	-11.6728
=0.0,	-11.6733
0),	-11.6733
ler	-11.674
▁timezone	-11.6741
84	-11.6743
HTTPError	-11.6745
subdir	-11.6745
extractor	-11.6745
references	-11.6747
abort	-11.6747
和	-11.675
Creating	-11.6751
heads	-11.6758
son	-11.6762
REF	-11.6768
production	-11.6768
TF	-11.6768
[6]	-11.6768
="")	-11.6777
LSTM	-11.6779
prec	-11.6779
setLevel	-11.678
Images	-11.6783
Quantity	-11.6785
Progress	-11.6787
▁hashlib	-11.6787
=20,	-11.679
43	-11.6791
detach	-11.6791
hierarchy	-11.6797
tempdir	-11.6801
extended	-11.6803
aug	-11.6805
▁scan	-11.6805
\'<	-11.6813
bill	-11.6816
▁runner	-11.6819
DD	-11.6822
5.0	-11.6825
wm	-11.6826
160	-11.683
elapsed	-11.6832
su	-11.6835
strength	-11.6838
信息	-11.684
▁basic	-11.6848
95	-11.6849
shipping	-11.6851
nin	-11.6851
▁positions	-11.6856
▁|=	-11.6856
(\'//	-11.6857
PT	-11.6862
vid	-11.6867
Dictionary	-11.6867
ik	-11.6867
msgs	-11.6871
buff	-11.6871
pan	-11.6872
AddField	-11.6872
▁etree	-11.6874
Ok	-11.6876
▁camera	-11.6878
"]/	-11.6878
>`	-11.6879
compress	-11.688
replica	-11.688
!\')	-11.6883
integration	-11.6883
statuses	-11.6883
▁whole	-11.6886
waiting	-11.6887
63	-11.6891
Objects	-11.6892
▁successful	-11.6893
CONTENT	-11.6895
▁se	-11.6898
CLIENT	-11.6901
行	-11.6904
resnet	-11.6907
bam	-11.6909
▁Post	-11.6909
school	-11.6913
nExample	-11.6914
paste	-11.6914
artifact	-11.6915
Starting	-11.6917
ravel	-11.6922
klass	-11.6922
を	-11.6924
READ	-11.6935
Geometry	-11.6936
Home	-11.6937
mer	-11.6939
logic	-11.6939
eff	-11.694
simulation	-11.6942
characters	-11.6946
preferences	-11.6947
sptr	-11.6947
notebook	-11.6951
▁usage	-11.6954
Loop	-11.6962
▁NOT	-11.6965
[...,	-11.6966
sms	-11.6973
assigned	-11.6973
Trigger	-11.6977
Transport	-11.6986
Virtual	-11.6987
intercept	-11.6987
coll	-11.6988
Chat	-11.6988
▁resolve	-11.6989
middleware	-11.6991
wa	-11.6991
credential	-11.6994
▁xs	-11.6996
Payment	-11.6997
OFF	-11.6998
▁Also	-11.6999
Exp	-11.7002
Features	-11.7003
获取	-11.7004
building	-11.7004
▁50	-11.7006
consume	-11.7008
Transfer	-11.7011
VALID	-11.7012
个	-11.7013
403	-11.7014
Byte	-11.7017
chrom	-11.7018
▁guess	-11.7018
overwrite	-11.7018
FC	-11.7018
arn	-11.7021
cash	-11.7027
weighted	-11.7029
ice	-11.7029
together	-11.703
hd	-11.7033
▁'{	-11.7037
mixed	-11.7038
("/")	-11.7039
ally	-11.7039
replay	-11.7042
movies	-11.7043
Download	-11.7048
teams	-11.7055
▁mesh	-11.7055
();	-11.7058
builtin	-11.7059
ze	-11.706
▁scipy	-11.706
alice	-11.7061
▁4),	-11.7061
▁mx	-11.7062
Gtk	-11.7062
attachments	-11.7068
AR	-11.708
gg	-11.7081
RO	-11.7084
120	-11.7084
paragraph	-11.7085
swagger	-11.7087
[2:]	-11.7089
slow	-11.7091
▁3])	-11.7092
xlim	-11.7093
expiration	-11.7094
pref	-11.7097
probe	-11.7099
urllib	-11.7101
ctypes	-11.7102
RT	-11.7103
▁16)	-11.7103
footer	-11.7106
transitions	-11.7108
▁/=	-11.711
------------	-11.7116
Delta	-11.7118
gif	-11.7119
rem	-11.7124
Dis	-11.7125
angles	-11.7133
how	-11.7133
Scan	-11.7134
Static	-11.7135
episodes	-11.7138
capabilities	-11.7144
▁filenames	-11.7144
▁Retrieve	-11.7146
Turn	-11.7149
eng	-11.7149
spatial	-11.7151
ell	-11.7156
▁attempt	-11.7156
Public	-11.7161
о	-11.7162
life	-11.7163
returncode	-11.7163
ros	-11.7163
Labels	-11.7167
overrides	-11.7171
heat	-11.7173
/{}/	-11.7174
ua	-11.7177
depends	-11.7178
▁rospy	-11.7178
用户	-11.7179
▁connected	-11.7181
mr	-11.7181
youtube	-11.7182
ATTR	-11.7186
Average	-11.7188
▁Save	-11.7189
expired	-11.7189
[-2]	-11.7193
different	-11.7196
3]	-11.7198
teacher	-11.72
Face	-11.7202
85	-11.7203
trait	-11.7203
plate	-11.7204
[%	-11.721
predicted	-11.7211
▁shift	-11.7215
animation	-11.722
Short	-11.7221
204	-11.7222
ctl	-11.7223
joined	-11.7223
notifications	-11.7229
,0)	-11.7232
subtype	-11.7233
linked	-11.7234
▁epsilon	-11.7234
▁won	-11.7239
datastore	-11.7248
lstrip	-11.7249
Head	-11.7253
conversion	-11.7253
▁prepare	-11.7256
Schedule	-11.726
▁manually	-11.7262
micro	-11.7263
Filename	-11.7263
Dynamic	-11.7269
Monitor	-11.727
smart	-11.7271
▁shuffle	-11.7272
▁assume	-11.7274
variants	-11.7274
slack	-11.7276
paper	-11.7277
forecast	-11.728
▁vertex	-11.7282
lv	-11.7282
名	-11.7284
yml	-11.7284
Clear	-11.7285
patches	-11.7285
38	-11.7288
matched	-11.729
picking	-11.7293
EVT	-11.73
listing	-11.73
[::-1]	-11.7301
shadow	-11.7306
brain	-11.7307
emails	-11.731
▁20)	-11.7312
qos	-11.7316
=(1,	-11.7317
▁partition	-11.7318
Append	-11.7318
MB	-11.7319
needs	-11.7323
wire	-11.7323
wl	-11.7324
▁encoder	-11.7331
invert	-11.7332
placement	-11.7332
anim	-11.7333
т	-11.7334
fault	-11.7336
gh	-11.7337
concept	-11.7342
secondary	-11.7345
Ad	-11.7345
3/	-11.7345
sta	-11.7353
▁Union	-11.7354
Patch	-11.7354
broker	-11.7357
用	-11.736
fingerprint	-11.7363
Mail	-11.7365
▁que	-11.7365
DF	-11.7371
peaks	-11.7371
▁matplotlib	-11.7373
32()	-11.7379
Mesh	-11.7381
translations	-11.7383
extras	-11.7384
CV	-11.7387
LIMIT	-11.7388
[0][\'	-11.7389
friend	-11.7389
Wrong	-11.7397
always	-11.7397
>>	-11.7398
tipo	-11.74
0.3	-11.7405
FF	-11.7407
hs	-11.7408
penalty	-11.7412
▁things	-11.7412
▁mocker	-11.7413
▁These	-11.7415
▁external	-11.7417
ratings	-11.742
hh	-11.742
nombre	-11.7421
attn	-11.7421
▁dataframe	-11.7421
mime	-11.7424
verb	-11.7426
styles	-11.7427
fan	-11.7429
▁normalized	-11.7431
yellow	-11.7431
sku	-11.7434
▁particular	-11.7443
cx	-11.7446
cms	-11.7451
一个	-11.7452
AttributeError	-11.7452
We	-11.7457
Master	-11.7461
ATION	-11.7461
ement	-11.7462
dog	-11.7463
▁strict	-11.7464
Enabled	-11.7466
{2}	-11.7468
▁accuracy	-11.7473
recording	-11.7473
palette	-11.7479
leg	-11.7484
lexer	-11.7485
lg	-11.7485
GO	-11.749
What	-11.7493
1024	-11.7494
dv	-11.7494
intent	-11.7495
▁$	-11.7496
far	-11.7497
drag	-11.7498
1.5	-11.7499
wc	-11.75
mini	-11.7501
routing	-11.7503
continue	-11.7503
SC	-11.7506
migrate	-11.7509
Many	-11.7509
svc	-11.7511
▁"#	-11.7513
quiet	-11.7514
hard	-11.7514
campaign	-11.7514
fns	-11.7516
1.1	-11.7518
quant	-11.7523
SHA	-11.7525
Words	-11.7525
verified	-11.7527
elt	-11.7527
initialized	-11.7528
;\	-11.7529
leave	-11.7529
▁255	-11.7533
▁anchor	-11.7537
/?	-11.7537
tor	-11.7539
▁predicted	-11.7541
detection	-11.7546
▁Must	-11.7548
Secret	-11.7549
▁Example	-11.7549
▁priority	-11.7551
Activation	-11.7552
▁1)]	-11.7555
▁bits	-11.7556
▁temporary	-11.7558
funcs	-11.7561
IM	-11.7563
▁shared	-11.7566
Strategy	-11.7569
600	-11.7573
▁switch	-11.7575
▁handling	-11.7576
▁tweet	-11.758
dicts	-11.7581
anchors	-11.7583
isnan	-11.7585
pooling	-11.7586
detector	-11.7589
1'	-11.7589
▁analysis	-11.7593
planes	-11.7593
)+"	-11.7593
modifier	-11.7602
д	-11.7603
Drop	-11.7605
vault	-11.7605
keyboard	-11.7606
Zone	-11.7614
maybe	-11.7616
▁phi	-11.7617
Runner	-11.7618
Username	-11.762
Machine	-11.7624
mtime	-11.7625
▁AND	-11.7626
lattice	-11.7626
budget	-11.7628
handles	-11.7629
DR	-11.763
trim	-11.7631
▁supports	-11.7636
extent	-11.7637
pieces	-11.764
En	-11.7644
registers	-11.7645
MESSAGE	-11.7647
<=	-11.7649
fallback	-11.7651
HEADER	-11.7651
vp	-11.7652
▁merged	-11.7654
49	-11.7654
tweets	-11.7655
46	-11.7656
Extra	-11.7657
measurement	-11.7663
▁logged	-11.7667
brand	-11.7669
backends	-11.7671
du	-11.7673
CL	-11.7673
DOMAIN	-11.7674
blueprint	-11.7676
Help	-11.7678
▁very	-11.7681
RS	-11.7686
(20,	-11.7687
ajax	-11.7687
TP	-11.7689
TEMPLATE	-11.769
pars	-11.7691
▁'*'	-11.7693
▁modify	-11.7693
rw	-11.7694
(0))	-11.7695
evaluation	-11.7696
Plan	-11.7696
past	-11.7699
languages	-11.7706
dry	-11.7708
=50,	-11.7709
etag	-11.7712
▁cross	-11.7712
Mo	-11.7712
-8\'))	-11.7713
Free	-11.7714
Long	-11.7716
optim	-11.7722
▁reuse	-11.7724
(0),	-11.7725
▁flask	-11.7726
▁computed	-11.7726
les	-11.7726
firewall	-11.7727
▁gene	-11.7727
▁longer	-11.7728
corners	-11.773
nor	-11.7732
▁30	-11.7735
students	-11.7736
ONE	-11.7738
gold	-11.7739
3")	-11.7742
>=	-11.7744
compatible	-11.7745
PM	-11.7746
QWidget	-11.7748
3",	-11.7748
▁'.'	-11.775
crs	-11.7751
corner	-11.7754
seqs	-11.7755
▁mocked	-11.7756
cdf	-11.7757
another	-11.7758
truncate	-11.7762
Assignment	-11.7765
cnn	-11.7765
>')	-11.7767
1\\	-11.7769
dash	-11.7769
▁iterator	-11.777
Canvas	-11.7773
▁\'{	-11.7773
randrange	-11.7774
▁Each	-11.7775
▁ordered	-11.7779
▁lst	-11.778
{0:	-11.7783
named	-11.7783
(1),	-11.7783
Testing	-11.7784
dia	-11.7786
authorize	-11.7792
reporter	-11.7792
snapshots	-11.7797
fx	-11.7801
NN	-11.7802
▁"0"	-11.7803
ue	-11.7804
uc	-11.7805
freeze	-11.7806
META	-11.7807
▁deprecated	-11.7809
ave	-11.7809
将	-11.7812
medium	-11.7812
pyxb	-11.7812
IT	-11.7814
authorized	-11.7815
unix	-11.7816
plotly	-11.7819
estimate	-11.7826
64.	-11.7827
race	-11.7827
▁surface	-11.783
software	-11.783
▁false	-11.7834
▁translation	-11.7835
3*	-11.7837
subplots	-11.784
expire	-11.7847
PR	-11.7848
urlencode	-11.7849
ann	-11.7849
ran	-11.7849
combined	-11.785
Snapshot	-11.7851
▁AssertionError	-11.7852
macro	-11.7859
▁never	-11.7862
ier	-11.7866
look	-11.7866
cor	-11.7867
Encoding	-11.7867
videos	-11.7867
jinja	-11.7872
-1.0	-11.7876
SO	-11.7878
dice	-11.7878
Instruction	-11.7882
modifiers	-11.7884
Execution	-11.7889
business	-11.7891
design	-11.7892
Subscription	-11.7893
dhcp	-11.7896
prices	-11.7899
▁small	-11.7902
▁tables	-11.7905
lvl	-11.7905
central	-11.7905
52	-11.7913
2012	-11.7913
contest	-11.7914
ities	-11.7916
OrderedDict	-11.7916
Actor	-11.7921
kit	-11.7922
Photo	-11.7926
▁whose	-11.7931
tracking	-11.7934
tokenizer	-11.7934
▁configured	-11.7936
▁reversed	-11.7941
iz	-11.7942
inside	-11.7945
▁pg	-11.7947
=50)	-11.7948
indexer	-11.7951
delimiter	-11.7951
OPEN	-11.7951
notice	-11.7954
▁Handle	-11.7955
-6	-11.7955
alphabet	-11.7958
NaN	-11.7958
rpm	-11.7959
[1]:	-11.7959
Poly	-11.7959
Unexpected	-11.796
Issue	-11.7963
algo	-11.7964
tpl	-11.7964
SA	-11.7965
reads	-11.7967
88	-11.7968
Times	-11.7972
ADD	-11.7975
▁Send	-11.7978
▁started	-11.7981
▁checked	-11.7987
timeline	-11.7988
annotate	-11.799
preprocess	-11.7991
tup	-11.7992
pkt	-11.7993
road	-11.7996
ig	-11.7997
membership	-11.7997
Async	-11.7998
NODE	-11.7999
framework	-11.7999
traffic	-11.8009
wizard	-11.8009
Vertex	-11.8012
particle	-11.8012
▁validators	-11.8012
)})	-11.8014
Off	-11.8015
▁frappe	-11.8015
89	-11.8016
1+	-11.8019
▁---	-11.8019
Render	-11.8019
Asset	-11.802
rooms	-11.802
')])	-11.8021
writeField	-11.8022
functools	-11.8022
Audio	-11.8026
mpi	-11.8026
hasattr	-11.8029
ger	-11.803
ja	-11.8032
regexp	-11.8035
}\'.	-11.8036
3')	-11.804
folders	-11.8049
Answer	-11.8049
度	-11.805
BLOCK	-11.8051
ensemble	-11.8052
Compute	-11.8053
dimensional	-11.8055
▁Assert	-11.8056
▁detected	-11.8057
Pin	-11.8061
AM	-11.8064
similarity	-11.8065
Cookie	-11.8068
returned	-11.8068
ish	-11.8068
nReturn	-11.8069
Double	-11.8071
EM	-11.8072
Groups	-11.8073
{%	-11.8075
subscriptions	-11.8076
imp	-11.8078
▁flat	-11.808
whitespace	-11.8081
▁behavior	-11.8083
▁slot	-11.8084
srv	-11.8085
uk	-11.8085
che	-11.8088
Sim	-11.8089
HEAD	-11.8091
▁taken	-11.8091
)**2	-11.8091
Second	-11.8095
▁[{	-11.8096
hop	-11.8099
▁caller	-11.8099
AD	-11.8102
BB	-11.8102
▁getting	-11.8102
▁ValidationError	-11.8102
leader	-11.8103
printer	-11.8105
▁audio	-11.8105
▁cm	-11.8106
Certificate	-11.8107
months	-11.8109
Install	-11.811
physical	-11.8111
dispatcher	-11.8111
Slot	-11.8112
▁So	-11.8118
▁''.	-11.8122
PI	-11.8123
encrypted	-11.8125
、	-11.8127
strong	-11.8127
ago	-11.813
declaration	-11.8133
xi	-11.8133
ancestor	-11.8133
Fixed	-11.8134
Algorithm	-11.8139
FILES	-11.8141
▁INTO	-11.8141
=-1,	-11.8141
41	-11.8142
Unique	-11.8142
decoded	-11.8142
ending	-11.8144
▁rc	-11.8147
[0]*	-11.815
PAGE	-11.8151
▁calculated	-11.8152
gan	-11.8163
offer	-11.8165
chapter	-11.8166
Repo	-11.8169
[0][	-11.8171
pushButton	-11.8172
birth	-11.8173
▁scalar	-11.8176
Organization	-11.8177
whitelist	-11.8177
▁asyncio	-11.8181
infer	-11.8184
16,	-11.8186
isoformat	-11.8188
▁backwards	-11.819
STOP	-11.8193
centroid	-11.8195
('{}	-11.8197
YType	-11.8201
comb	-11.8203
severity	-11.8205
Polygon	-11.8212
High	-11.8215
pretrained	-11.8216
iters	-11.8217
benchmark	-11.8217
▁asset	-11.8218
Duration	-11.8219
codec	-11.8225
INET	-11.8234
analyzer	-11.8236
stored	-11.8237
MC	-11.8241
periods	-11.8241
CD	-11.8243
0.5	-11.8243
expanduser	-11.8247
trials	-11.8251
-8'))	-11.8253
='')	-11.8254
lun	-11.8254
aspect	-11.8254
winner	-11.8255
bond	-11.8263
2013	-11.8264
CE	-11.8266
xa	-11.8269
}{	-11.8271
ー	-11.8274
Initialize	-11.8276
exponent	-11.8277
weekday	-11.8282
时间	-11.8282
Atom	-11.8283
Descriptor	-11.8284
descr	-11.8285
fromstring	-11.8286
gaussian	-11.8287
▁"-"	-11.8288
social	-11.829
▁latest	-11.8295
intervals	-11.8295
Using	-11.8296
▁decoder	-11.8297
vt	-11.8297
STREAM	-11.8298
checkbox	-11.8302
ner	-11.8306
blk	-11.8309
▁[%	-11.8311
setWindowTitle	-11.8311
minimize	-11.8311
ise	-11.8316
Listener	-11.8319
UL	-11.8321
▁charset	-11.8327
scanner	-11.8329
{\\	-11.833
Prop	-11.8331
57	-11.8332
ME	-11.8333
▁unknown	-11.8338
▁vectors	-11.8339
producer	-11.834
Must	-11.8341
vpc	-11.8351
unsqueeze	-11.8351
proba	-11.8352
sampler	-11.8352
frag	-11.8355
Processing	-11.8365
objective	-11.8369
▁bases	-11.837
CI	-11.8371
presence	-11.8373
[-1],	-11.8374
unk	-11.8376
▁loading	-11.8378
guard	-11.8381
ListView	-11.8382
(100)	-11.8383
isdigit	-11.8391
vecs	-11.8392
decl	-11.8393
▁border	-11.8397
bands	-11.8401
Generate	-11.8403
composite	-11.8403
readable	-11.8409
nat	-11.8409
=[1,	-11.8409
▁gets	-11.8412
xmin	-11.8415
ible	-11.8419
verbosity	-11.8421
sector	-11.8425
▁documentation	-11.8426
well	-11.8427
▁goal	-11.8428
▁computation	-11.8429
LC	-11.8429
reversed	-11.8433
predicate	-11.8433
sublime	-11.8435
RequestHandler	-11.8436
ist	-11.8438
=30)	-11.8438
xp	-11.8441
Available	-11.8442
ble	-11.8443
rss	-11.8445
=''):	-11.8445
▁sparse	-11.8448
evt	-11.845
▁closed	-11.845
▁4))	-11.8454
transforms	-11.8456
observer	-11.846
Marker	-11.8463
Union	-11.8463
CPU	-11.8471
Stat	-11.8473
redirects	-11.8475
▁rhs	-11.8482
RuntimeError	-11.8484
▁bytearray	-11.8484
smtp	-11.8485
signup	-11.8488
▁validated	-11.8489
ow	-11.849
ever	-11.8496
guide	-11.8497
单	-11.8498
directories	-11.8499
flask	-11.8499
prof	-11.8499
▁really	-11.85
compound	-11.8504
}))	-11.8504
Should	-11.8504
Support	-11.8511
tg	-11.8513
▁going	-11.8514
GB	-11.8518
2\')	-11.8524
blocked	-11.8526
,:]	-11.8526
0.00	-11.8531
spike	-11.8533
rsa	-11.8534
expiry	-11.8535
door	-11.8535
Trans	-11.8538
Stock	-11.8545
strides	-11.8546
3000	-11.8547
hardware	-11.8547
ISO	-11.8547
(0.5)	-11.8548
SI	-11.8549
LR	-11.8554
finalize	-11.8556
Platform	-11.8556
protein	-11.8558
smooth	-11.8559
▁large	-11.856
▁Deleting	-11.8561
prefs	-11.8563
Headers	-11.8563
serialized	-11.8569
baseline	-11.8571
blacklist	-11.8573
enqueue	-11.8573
logfile	-11.8574
jpeg	-11.8575
slope	-11.8576
Place	-11.8578
▁StopIteration	-11.8579
%2	-11.8579
zmq	-11.858
▁chosen	-11.8584
sur	-11.8586
queues	-11.8586
▁itertools	-11.8587
>/	-11.8587
editable	-11.859
yang	-11.859
NUMBER	-11.8593
crypt	-11.8595
invite	-11.8595
subscriber	-11.8595
Positive	-11.8601
▁student	-11.8603
-----\	-11.8605
tooltip	-11.8605
字	-11.8605
MO	-11.8607
imread	-11.8612
playing	-11.8613
mw	-11.8615
▁cached	-11.8615
heartbeat	-11.8617
51	-11.8619
▁nested	-11.8619
zo	-11.8624
brightness	-11.8624
TE	-11.8625
IOS	-11.8627
deferred	-11.8629
Rank	-11.8629
suit	-11.8632
STRUCT	-11.8633
cores	-11.8634
▁serialized	-11.8636
Pa	-11.8637
filled	-11.8641
Elements	-11.8642
▁painter	-11.8645
tap	-11.8646
cmdline	-11.865
stopped	-11.8654
▁typ	-11.8656
department	-11.8657
Workflow	-11.866
compression	-11.8661
subtitle	-11.8663
▁thing	-11.8664
▁abstract	-11.8664
PE	-11.8665
▁constraint	-11.8666
Sheet	-11.8666
▁initialization	-11.8669
filt	-11.8669
etree	-11.8671
sun	-11.8672
ERR	-11.8673
lng	-11.8674
lic	-11.8676
webhook	-11.8677
cinder	-11.8681
▁"."	-11.8683
Transition	-11.8686
shares	-11.869
▁detect	-11.8692
▁archive	-11.8693
=1.0,	-11.8694
minion	-11.8694
/',	-11.8701
Trace	-11.8703
Renderer	-11.8704
Dec	-11.8707
▁evaluation	-11.8709
▁ws	-11.8709
▁separate	-11.871
wr	-11.8712
▁15	-11.8712
▁boxes	-11.8713
IE	-11.8713
keystone	-11.8713
▁bounds	-11.8714
External	-11.8719
opener	-11.8722
▁typing	-11.8723
leaves	-11.8723
identifiers	-11.8724
▁temperature	-11.8726
cron	-11.8729
Like	-11.8731
DateField	-11.8732
▁bundle	-11.8732
upstream	-11.8735
77	-11.8736
pem	-11.8736
wh	-11.8738
▁renderer	-11.8739
ADMIN	-11.8744
CHOICES	-11.8746
formset	-11.8746
Mark	-11.875
gallery	-11.8751
67	-11.8752
facebook	-11.8754
▁minutes	-11.8754
▁inplace	-11.8754
("#	-11.8756
PL	-11.8761
▁regular	-11.8761
Ctrl	-11.8761
97	-11.8761
▁1000)	-11.8768
unset	-11.877
defs	-11.8775
CMD	-11.8776
▁1024	-11.8778
ignored	-11.8779
weapon	-11.8779
▁sublime	-11.8781
years	-11.8786
comparison	-11.8788
hyper	-11.8789
npy	-11.8792
edu	-11.8792
activated	-11.8792
▁30,	-11.8793
Tk	-11.8793
Origin	-11.8794
66	-11.8802
NEW	-11.8805
qubits	-11.8808
32),	-11.8809
▁cwd	-11.881
divide	-11.8814
▁[-1,	-11.8818
egg	-11.8819
costs	-11.882
UID	-11.8825
advance	-11.8826
selenium	-11.8827
rdf	-11.8827
▁variant	-11.8829
cmds	-11.8829
ace	-11.883
banner	-11.8831
reading	-11.8831
▁'#	-11.8832
={}):	-11.8833
▁Django	-11.8833
▁rtol	-11.8834
===============	-11.8838
normalization	-11.8839
▁subset	-11.8842
ki	-11.8844
nNotes	-11.8847
▁decoded	-11.8848
00000	-11.8849
recipients	-11.8858
jit	-11.8858
▁des	-11.8858
▁bg	-11.886
exclusive	-11.886
effects	-11.8862
="/	-11.8863
▁50,	-11.8868
basedir	-11.8871
declare	-11.8871
zones	-11.8874
0))	-11.888
SERVICE	-11.888
({},	-11.8881
pet	-11.8882
imag	-11.8882
/2)	-11.8886
▁suite	-11.8886
preferred	-11.8888
▁notification	-11.8889
residual	-11.8892
critic	-11.8892
nAttributes	-11.8893
Conf	-11.8894
tan	-11.8897
▁conditions	-11.8897
▁Called	-11.8898
cas	-11.89
pubkey	-11.89
jid	-11.89
crc	-11.89
incoming	-11.8901
Ch	-11.8905
anti	-11.8905
Methods	-11.8905
shader	-11.8906
serv	-11.8909
RPC	-11.8909
newaxis	-11.8912
BA	-11.8913
▁JsonResponse	-11.8915
▁Checks	-11.8916
je	-11.8918
timing	-11.892
expose	-11.8922
snake	-11.8924
four	-11.8926
▁prior	-11.8926
assertListEqual	-11.893
cod	-11.8932
в	-11.8939
deposit	-11.8942
'][0]	-11.8948
NORMAL	-11.8951
Pro	-11.8953
paint	-11.8954
maker	-11.8955
Security	-11.8955
入	-11.8958
((1,	-11.8963
BUTTON	-11.8964
999	-11.8965
QPushButton	-11.8965
wo	-11.8966
solid	-11.8969
SOCK	-11.8969
her	-11.8972
Wait	-11.8973
iris	-11.8974
12345	-11.8974
through	-11.8978
sup	-11.8979
=20)	-11.898
vtk	-11.898
▁stuff	-11.8984
caps	-11.8984
Desc	-11.8987
tie	-11.8989
exposure	-11.8992
friends	-11.8994
▁proper	-11.8995
Loading	-11.8995
pressure	-11.8997
-7	-11.8997
▁0.2	-11.8997
Credentials	-11.8999
Lambda	-11.9002
while	-11.9003
▁sticky	-11.9008
▁Decimal	-11.9011
prefixes	-11.9013
visited	-11.9016
к	-11.9016
▁sqlite	-11.9018
▁{\	-11.9019
(',')	-11.902
Loc	-11.902
BC	-11.9023
wcs	-11.9027
▁observation	-11.9028
Unsupported	-11.9029
▁par	-11.903
▁preserve	-11.903
Html	-11.903
attempts	-11.903
billing	-11.9031
aw	-11.9032
will	-11.9032
ek	-11.9033
Yes	-11.9034
icons	-11.9034
notifier	-11.9039
▁logic	-11.9043
USERNAME	-11.9044
criteria	-11.9047
reuse	-11.9052
attempt	-11.9053
Review	-11.9053
Go	-11.9054
▁30)	-11.9055
Literal	-11.9056
inject	-11.9057
▁First	-11.9058
controls	-11.9059
▁########	-11.906
speaker	-11.9061
fails	-11.9068
▁happen	-11.9068
expansion	-11.907
namespaces	-11.9071
▁pprint	-11.9072
tid	-11.9073
spark	-11.9074
eur	-11.9074
▁executed	-11.9075
${	-11.9081
▁much	-11.9085
▁difference	-11.9086
tmpl	-11.9087
▁Project	-11.9088
Reply	-11.9091
Rows	-11.9091
METHOD	-11.9091
▁conversion	-11.9091
▁scheduler	-11.9091
202	-11.9092
confidence	-11.9092
alloc	-11.9095
-3,	-11.9096
compose	-11.9097
▁starts	-11.9099
RESPONSE	-11.9101
setGeometry	-11.9103
CSS	-11.9106
"]),	-11.9107
Internal	-11.9107
Xml	-11.9114
Middleware	-11.9117
TOP	-11.9118
crawler	-11.9118
Convert	-11.9119
参数	-11.9128
mg	-11.9129
}\'	-11.9129
▁itself	-11.9131
▁visitor	-11.9131
FROM	-11.9132
Pi	-11.9133
bgp	-11.9134
Shift	-11.9136
▁StringIO	-11.9136
sch	-11.9139
coerce	-11.9139
periodic	-11.9142
unregister	-11.9142
3))	-11.9147
▁cnt	-11.9147
vehicle	-11.9148
assignments	-11.9151
ys	-11.9151
(",")	-11.9154
hc	-11.9156
▁probably	-11.9156
▁direct	-11.9157
paid	-11.9162
ckpt	-11.9164
Serial	-11.9165
ine	-11.9165
NotFoundError	-11.9166
▁integers	-11.9167
Tools	-11.9169
reserved	-11.917
98	-11.9174
hid	-11.9174
Keyword	-11.9177
ConfigParser	-11.9178
tzinfo	-11.9183
tunnel	-11.9186
discover	-11.9186
|\\	-11.9187
fileobj	-11.919
AST	-11.919
4',	-11.9191
World	-11.9191
PID	-11.9192
SL	-11.9192
?")	-11.9193
▁issubclass	-11.9194
mse	-11.9196
MA	-11.9197
around	-11.9198
sam	-11.9199
-2)	-11.92
shard	-11.92
xr	-11.92
Fix	-11.92
Lookup	-11.9201
ico	-11.9201
▁permissions	-11.9205
managed	-11.9206
▁10:	-11.9209
")[0]	-11.9215
fastq	-11.9218
coeffs	-11.9218
regular	-11.9219
(\',\')	-11.922
ium	-11.9223
0.75	-11.9226
3\',	-11.9228
writerow	-11.9228
ped	-11.9229
FAKE	-11.9229
(7,	-11.9234
▁glob	-11.9234
GUI	-11.9235
Red	-11.924
desired	-11.9243
0",	-11.9244
dbus	-11.9244
▁gtk	-11.9245
='/	-11.9245
Com	-11.9246
▁resolution	-11.9247
vocabulary	-11.9248
Payload	-11.9256
sal	-11.9256
1']	-11.9256
▁Vector	-11.9258
54	-11.9258
libs	-11.926
ACCESS	-11.9261
▁500	-11.9261
▁indicating	-11.9261
canonical	-11.9262
GP	-11.9262
-1])	-11.9264
▁monkeypatch	-11.9266
▁versions	-11.9267
▁entire	-11.9269
▁bug	-11.9269
Embedding	-11.9269
Linux	-11.9269
instructions	-11.9274
Skip	-11.9275
SH	-11.9276
chk	-11.9276
++	-11.9277
POS	-11.9279
vy	-11.928
(2))	-11.9281
Kernel	-11.9285
persistent	-11.9287
▁experiment	-11.929
centre	-11.9291
dh	-11.9292
▁prevent	-11.9294
AssertionError	-11.9295
111	-11.9296
▁11,	-11.9296
Private	-11.9299
▁Define	-11.93
▁Main	-11.93
inspection	-11.9305
effective	-11.9306
▁iterate	-11.931
cred	-11.9311
office	-11.9315
GA	-11.9318
Cisco	-11.932
fuel	-11.932
▁iterations	-11.9323
WRITE	-11.9325
infile	-11.9327
▁Don	-11.9329
列表	-11.933
LO	-11.9336
swift	-11.9341
Stage	-11.9343
00,	-11.9343
▁categories	-11.9343
Final	-11.9345
..."	-11.9346
txn	-11.9352
matcher	-11.9353
▁outside	-11.9357
▁cause	-11.9358
sem	-11.9359
Exists	-11.936
#############	-11.9362
dup	-11.9364
Variables	-11.9366
wi	-11.9367
▁16,	-11.9368
Bin	-11.9368
plug	-11.9369
interpret	-11.9371
ual	-11.9372
sensors	-11.9373
▁relation	-11.9375
▁annotation	-11.9375
▁actor	-11.9376
=1),	-11.9376
occ	-11.9381
6]	-11.9383
INVALID	-11.9384
vcf	-11.9384
lane	-11.9384
regression	-11.9385
250	-11.9389
outdir	-11.939
pulse	-11.9391
dct	-11.9392
ended	-11.9393
nis	-11.9393
momentum	-11.9395
encryption	-11.9401
Depth	-11.9411
operand	-11.9411
\'])),	-11.9413
vstack	-11.9414
dna	-11.9416
Console	-11.9416
vl	-11.9424
permutation	-11.9425
Complete	-11.9426
Ticket	-11.9426
Backup	-11.9429
indexed	-11.9433
Country	-11.9433
emp	-11.9434
fully	-11.9435
Regex	-11.9437
[4])	-11.9438
duplicates	-11.9439
▁including	-11.9446
third	-11.9446
optimize	-11.9451
nas	-11.9454
47	-11.9456
pools	-11.9458
▁SQL	-11.9459
HOME	-11.946
reviews	-11.9461
hu	-11.9466
supplier	-11.9468
bandwidth	-11.9475
▁song	-11.9476
ana	-11.9477
bpy	-11.9484
subtract	-11.9484
93	-11.9484
gy	-11.9486
上	-11.9486
tolerance	-11.9487
proposal	-11.9488
assertDictEqual	-11.949
▁Validate	-11.9491
That	-11.9494
CP	-11.9495
fpath	-11.9495
▁\'#	-11.9495
intensity	-11.9495
▁relevant	-11.9497
Clock	-11.9499
IDs	-11.9501
=1))	-11.9503
ous	-11.9505
correlation	-11.9506
Rest	-11.9507
threading	-11.951
priv	-11.9514
nfor	-11.9515
sk	-11.9516
roots	-11.9518
▁resulting	-11.952
▁interpolation	-11.9522
boost	-11.9524
▁half	-11.9529
subjects	-11.9531
Push	-11.9532
receipt	-11.9534
primitive	-11.9534
JS	-11.9534
Units	-11.9538
frm	-11.9542
propagate	-11.9542
%%	-11.9544
▁sources	-11.9545
gd	-11.9549
▁energy	-11.9552
replication	-11.9556
▁finished	-11.9556
78	-11.9557
8")	-11.9557
Holder	-11.9559
hints	-11.9559
_200_	-11.956
Shell	-11.9562
discrete	-11.9562
▁VALUES	-11.9566
\')]	-11.9569
pca	-11.9569
City	-11.957
DM	-11.9572
▁bs	-11.9573
uses	-11.9574
,**	-11.9575
509	-11.9577
cent	-11.9579
下	-11.9579
▁runs	-11.958
▁0.3	-11.9581
GT	-11.9583
▁locals	-11.9584
potential	-11.9585
110	-11.9585
WITH	-11.9586
360	-11.9587
▁60)	-11.9587
songs	-11.9588
了	-11.9588
gzip	-11.9589
cisco	-11.9594
west	-11.9604
qc	-11.9605
Ext	-11.9605
addItem	-11.9606
▁lista	-11.9613
▁relationship	-11.9614
mis	-11.9618
addAction	-11.9628
openstack	-11.9629
=0.5,	-11.9629
22,	-11.9632
▁LOGGER	-11.9634
-2,	-11.9634
▁ask	-11.9635
NT	-11.9636
affine	-11.9638
я	-11.9638
68	-11.9638
▁provides	-11.9641
表	-11.9645
▁restore	-11.9645
NET	-11.9654
Movie	-11.9656
▁Extract	-11.9657
Converter	-11.9661
reservation	-11.9662
spell	-11.9663
ngram	-11.9663
▁prompt	-11.9666
proxies	-11.9667
CHECK	-11.9668
▁calculation	-11.9668
prov	-11.9672
61	-11.9673
##	-11.9674
▁cl	-11.9674
risk	-11.9674
▁curve	-11.9674
ica	-11.9676
interactive	-11.9677
Ui	-11.9677
----------	-11.9678
iam	-11.9679
使用	-11.9681
eyboardInterrupt	-11.9684
Over	-11.9685
▁serial	-11.969
-12	-11.9693
ModelSerializer	-11.9699
certs	-11.9701
=""):	-11.9702
InputSet	-11.9708
▁console	-11.971
confirmation	-11.9713
QMessageBox	-11.9713
scales	-11.9717
exam	-11.9717
Student	-11.9719
Cross	-11.972
Constants	-11.972
▁recursive	-11.9721
")]	-11.9721
xl	-11.9722
224	-11.9722
Finished	-11.9723
▁indexes	-11.9723
▁comparison	-11.9725
2':	-11.9726
intersect	-11.9726
▁'-'	-11.9728
Sets	-11.9732
▁entities	-11.9733
LEVEL	-11.9734
activities	-11.9734
81	-11.9735
▁recent	-11.9735
Commit	-11.9737
Router	-11.9739
▁Setup	-11.9739
die	-11.974
))))	-11.9744
('')	-11.9748
Fail	-11.9749
areas	-11.975
TBinaryProtocol	-11.9756
expanded	-11.9759
Sound	-11.9759
assoc	-11.9763
▁5),	-11.9764
imports	-11.9768
udp	-11.9768
23,	-11.9769
▁400	-11.977
Force	-11.9771
GC	-11.9773
defer	-11.9776
buffers	-11.9776
▁responses	-11.9777
cycles	-11.978
neurons	-11.9781
Hand	-11.9782
elems	-11.9789
neuron	-11.9792
diagonal	-11.9792
wide	-11.9794
States	-11.9796
mkdtemp	-11.9797
writeStruct	-11.9799
cascade	-11.9801
▁2])	-11.9802
=255,	-11.9805
('.')	-11.9806
titles	-11.9806
Experiment	-11.9807
Decoder	-11.9808
Functions	-11.9809
▁=>	-11.9809
Dim	-11.981
▁completed	-11.9811
dz	-11.9811
8')	-11.9811
vrf	-11.9812
▁pp	-11.9812
tournament	-11.9814
hue	-11.9814
▁rho	-11.9815
xlsx	-11.9815
stubs	-11.9815
▁indicates	-11.9816
Threshold	-11.9818
Minimum	-11.9823
stations	-11.9823
edited	-11.9825
trainer	-11.9827
realpath	-11.983
following	-11.9831
numero	-11.9833
watcher	-11.9837
Submit	-11.9839
rnd	-11.9839
2}	-11.9839
pct	-11.984
Messages	-11.984
Coord	-11.9844
scheduled	-11.9856
individual	-11.9857
▁setUpClass	-11.9859
sanitize	-11.9859
oe	-11.9862
▁returning	-11.9863
NP	-11.9863
explicit	-11.9865
0')	-11.9865
ung	-11.9868
'][0]['	-11.9874
XR	-11.9875
contour	-11.988
PRE	-11.9883
observations	-11.9889
classify	-11.9889
VIEW	-11.9894
▁episode	-11.9895
RNN	-11.9898
vbox	-11.9898
▁classifier	-11.9899
ACTIVE	-11.99
SIGNAL	-11.9905
just	-11.9907
▁rather	-11.9912
!'	-11.9913
maze	-11.9914
QtWidgets	-11.9914
FilePath	-11.9915
▁across	-11.9915
▁boundary	-11.9915
miss	-11.9918
decision	-11.9918
marks	-11.9922
qubit	-11.9922
Arr	-11.9924
flight	-11.9924
▁Game	-11.9924
ы	-11.9925
(0.1)	-11.9925
dfs	-11.9927
peek	-11.9927
dists	-11.9928
DL	-11.9929
reaction	-11.9929
spline	-11.9931
'|'	-11.9931
photos	-11.9933
AutoField	-11.9935
qu	-11.9936
setLayout	-11.9938
(1.0,	-11.9939
Addr	-11.9942
sen	-11.9944
Translation	-11.9944
▁general	-11.9948
bet	-11.9952
kp	-11.9952
AUTO	-11.9953
Material	-11.9953
▁terminal	-11.9956
testcase	-11.9956
OBJECT	-11.9957
127	-11.9958
hm	-11.9959
mine	-11.9965
4-	-11.9965
▁rng	-11.9968
]"	-11.9969
netloc	-11.9969
dur	-11.9971
demand	-11.9973
Standard	-11.9975
dock	-11.9977
UNKNOWN	-11.9982
aff	-11.9986
函数	-11.9986
91	-11.999
Sign	-11.9991
DATABASE	-11.9995
xFF	-11.9996
basket	-11.9997
▁\'\'.	-11.9998
0.6	-11.9998
learner	-11.9998
▁Adds	-12.0003
▁locale	-12.0003
sales	-12.0005
Partition	-12.0005
▁|\	-12.0014
[1:	-12.0017
QUERY	-12.002
▁pr	-12.002
Relation	-12.002
freqs	-12.002
Checker	-12.0022
()[1]	-12.0025
collision	-12.0026
PO	-12.0027
-----	-12.0028
stable	-12.003
TARGET	-12.003
Phase	-12.0033
▁[{"	-12.0033
▁trying	-12.0034
▁\'.\'	-12.0035
▁cmap	-12.0036
vr	-12.0036
locs	-12.0037
Browser	-12.0038
repl	-12.0038
Square	-12.0038
0")	-12.0039
portfolio	-12.0039
Describe	-12.0043
=255)	-12.0043
-1:	-12.0043
ial	-12.0043
21,	-12.0044
acion	-12.0046
ode	-12.0047
▁[(\'	-12.0049
deadline	-12.005
slash	-12.0051
Company	-12.0052
FAILED	-12.0054
[7]	-12.0056
▁hand	-12.0058
voltage	-12.0058
inactive	-12.0059
Side	-12.0061
Modified	-12.0062
schemas	-12.0062
General	-12.0063
▁seg	-12.0063
(6)	-12.0066
Sys	-12.0068
Dimension	-12.0068
▁statistics	-12.0069
[:-1])	-12.007
▁Call	-12.007
izing	-12.007
ical	-12.007
statements	-12.0072
BY	-12.0076
Slice	-12.0077
shp	-12.0078
isnull	-12.0078
[2,	-12.0083
▁128,	-12.0083
Archive	-12.0085
▁Tuple	-12.0085
▁50)	-12.0087
▁terms	-12.0087
inference	-12.0088
2']	-12.0092
401	-12.0092
Ratio	-12.0096
importer	-12.0097
OPTIONS	-12.0097
72	-12.0098
limited	-12.0099
bboxes	-12.01
▁chunks	-12.0102
Added	-12.0104
NB	-12.0104
hparams	-12.0104
barcode	-12.0105
PA	-12.0107
scipy	-12.0112
criterion	-12.0117
▁simply	-12.0117
valor	-12.0118
▁checkpoint	-12.0119
kargs	-12.012
SOURCE	-12.0121
▁who	-12.0121
SESSION	-12.0121
0.4	-12.0122
pprint	-12.0123
▁Custom	-12.0126
▁initialized	-12.0127
▁adjust	-12.0127
4*	-12.0127
{0}'.	-12.0128
Req	-12.013
tech	-12.0131
Named	-12.0134
[1]/	-12.0136
traits	-12.0139
文	-12.0141
stuff	-12.0142
greater	-12.0142
▁parallel	-12.0146
▁boto	-12.0151
SM	-12.0151
pu	-12.0152
datum	-12.0154
approved	-12.0154
enforce	-12.0157
%02	-12.016
▁mouse	-12.0162
100000	-12.0164
ori	-12.0166
Month	-12.0171
xxx	-12.0176
plots	-12.0176
dirpath	-12.0177
fq	-12.018
FINISHED	-12.0181
_1(	-12.0181
NE	-12.0185
76	-12.0189
written	-12.0191
pane	-12.0191
lit	-12.0192
DA	-12.0194
mox	-12.0196
Blog	-12.0196
11,	-12.0198
ham	-12.0198
Normalization	-12.0198
▁clf	-12.0199
LINK	-12.02
tel	-12.0204
LEN	-12.0208
▁pick	-12.0209
tornado	-12.0209
recall	-12.0209
verification	-12.0211
▁basestring	-12.0211
works	-12.0214
7)	-12.0215
sweep	-12.0218
loops	-12.0218
▁vs	-12.0219
▁robot	-12.0222
five	-12.0222
▁packages	-12.0223
▁Used	-12.0223
preset	-12.0225
bars	-12.0228
0]	-12.0231
▁sending	-12.0234
orient	-12.0235
▁todo	-12.0236
▁explicitly	-12.0237
mods	-12.0238
SW	-12.0238
EXT	-12.024
secrets	-12.0244
conversation	-12.0245
▁Print	-12.0245
||	-12.0246
)[1]	-12.0246
gal	-12.0246
glyph	-12.0247
SPAN	-12.0247
tion	-12.0249
wins	-12.0249
division	-12.0251
("!	-12.0252
▁collect	-12.0255
**\\:	-12.0256
Pixel	-12.0263
gtk	-12.0267
symlink	-12.0269
Scalar	-12.027
▁extracted	-12.028
zA	-12.0281
Press	-12.0284
avail	-12.0287
want	-12.0293
后	-12.0295
▁FLAGS	-12.0298
▁du	-12.0303
=\'%	-12.0304
▁blob	-12.0305
StringField	-12.0307
symmetric	-12.0308
iou	-12.0309
3),	-12.0312
▁7)	-12.0314
▁replacement	-12.0315
Owner	-12.0318
Alert	-12.0318
graphics	-12.0321
Live	-12.0328
assertAllClose	-12.0329
▁-->	-12.0329
numerator	-12.0331
Choose	-12.0334
SETTINGS	-12.0334
deriv	-12.0335
compressed	-12.0337
-----------	-12.0337
contiguous	-12.0337
RUN	-12.0337
bat	-12.0338
Utf	-12.0339
OT	-12.0343
operators	-12.0344
throw	-12.0347
raster	-12.035
Super	-12.035
saver	-12.0351
á	-12.0351
▁exactly	-12.0354
truncated	-12.0355
commits	-12.0355
beat	-12.0357
Se	-12.0357
mixer	-12.0359
Join	-12.036
insertion	-12.036
▁adds	-12.0361
ranks	-12.0369
(3):	-12.0372
▁fontsize	-12.0374
apt	-12.0375
lut	-12.0376
cum	-12.0377
▁constraints	-12.038
jd	-12.038
Iter	-12.0382
pivot	-12.0382
ABC	-12.0382
▁require	-12.0384
sides	-12.0384
MAC	-12.0385
▁fg	-12.0386
lineEdit	-12.0388
closure	-12.0389
Low	-12.039
DNS	-12.0392
bz	-12.0394
CB	-12.0395
sched	-12.0397
(20)	-12.04
TH	-12.0401
St	-12.0401
MT	-12.0401
Scheduler	-12.0402
pokemon	-12.0402
▁bins	-12.0404
El	-12.0406
/2,	-12.0406
reduced	-12.0406
nrows	-12.041
isbn	-12.0412
Blob	-12.0413
mel	-12.0414
association	-12.0419
▁considered	-12.0423
serialization	-12.0423
resample	-12.0424
▁\'\':	-12.0424
▁cont	-12.043
▁certain	-12.0432
lxml	-12.0433
RC	-12.0434
Bundle	-12.0438
colorbar	-12.0438
QApplication	-12.0438
bash	-12.0439
▁xp	-12.0439
▁threads	-12.0441
Err	-12.0441
▁logs	-12.0442
0\\	-12.0443
이	-12.0445
rounds	-12.0445
▁queries	-12.0448
distributed	-12.045
anno	-12.045
FD	-12.045
asc	-12.0451
▁transfer	-12.0453
goto	-12.0453
tsv	-12.0457
{3}	-12.0464
74	-12.0466
who	-12.0473
20,	-12.0474
nest	-12.0474
▁256,	-12.0474
RP	-12.0476
websocket	-12.0476
('./	-12.0477
FloatField	-12.0481
SR	-12.0482
FONT	-12.0485
▁writing	-12.0488
aggregation	-12.0488
▁built	-12.0489
ENV	-12.049
hstack	-12.0492
Catalog	-12.0492
Merge	-12.0493
▁crop	-12.0493
EMPTY	-12.0495
▁sampling	-12.0499
successful	-12.0499
ov	-12.0502
点	-12.0502
Transformer	-12.0502
Logging	-12.0504
2\\	-12.0504
Forward	-12.0505
对	-12.0507
LOCAL	-12.0509
▁{0}'.	-12.0509
Kind	-12.0511
Star	-12.0514
_{	-12.0514
▁{}\\	-12.0516
ROI	-12.0519
PP	-12.0521
▁XXX	-12.0524
filePath	-12.0527
VAR	-12.0528
segmentation	-12.0528
prefetch	-12.0536
loan	-12.0541
voucher	-12.0542
android	-12.0542
failures	-12.0544
▁inp	-12.0548
tour	-12.055
Registration	-12.0551
RequestContext	-12.0554
eos	-12.0555
▁sel	-12.0555
embedded	-12.0555
thickness	-12.0557
ContentType	-12.0561
▁similar	-12.0562
ND	-12.0563
coding	-12.0567
gov	-12.0567
packed	-12.0569
pins	-12.057
240	-12.0574
preference	-12.0575
12,	-12.0575
squares	-12.0576
relpath	-12.0577
Dev	-12.058
í	-12.0583
samp	-12.0584
outcome	-12.0584
lay	-12.0586
rom	-12.0589
ORDER	-12.0591
tensorflow	-12.0592
▁transition	-12.0594
summaries	-12.0597
PG	-12.0597
magnitude	-12.0602
lte	-12.0603
Round	-12.0603
Annotation	-12.0603
bonus	-12.0604
hg	-12.0608
TT	-12.0608
ified	-12.061
Fault	-12.061
?"	-12.0612
CN	-12.0612
undefined	-12.0614
Old	-12.0614
▁directories	-12.0614
contours	-12.0615
foreground	-12.0615
principal	-12.0616
News	-12.0616
▁transformation	-12.0617
▁candidates	-12.0618
captcha	-12.062
LL	-12.0621
updater	-12.0622
qp	-12.0626
3.5	-12.0629
Mouse	-12.0633
functional	-12.0634
▁represent	-12.0635
residue	-12.0644
▁vertices	-12.0645
79	-12.0646
mono	-12.0648
5000	-12.0648
▁buff	-12.0649
▁rendered	-12.065
接	-12.065
CM	-12.0653
padded	-12.0655
allocate	-12.0656
trajectory	-12.0657
▁density	-12.0658
Gate	-12.0662
CG	-12.0662
downsample	-12.0666
10000	-12.0666
TM	-12.067
▁vertical	-12.067
speech	-12.0673
crawl	-12.0677
publication	-12.068
83	-12.0681
▁equivalent	-12.0681
▁klass	-12.0683
▁inverse	-12.0685
Measure	-12.0688
relay	-12.069
lista	-12.0691
COMMAND	-12.0692
Wrap	-12.0697
▁spaces	-12.0697
within	-12.0698
prim	-12.0699
Contents	-12.07
选	-12.07
pagination	-12.0701
▁beginning	-12.0704
sprites	-12.0704
acao	-12.0708
▁doing	-12.0715
neighbours	-12.0715
▁dep	-12.0721
TLS	-12.0723
consistency	-12.0723
Variant	-12.0723
Bi	-12.0726
Duplicate	-12.0727
▁receive	-12.074
gmail	-12.0742
\'][0]	-12.0744
either	-12.0746
Pop	-12.0746
centroids	-12.0748
friendly	-12.0751
planet	-12.0751
Chart	-12.0752
0.8	-12.0755
eager	-12.0756
Man	-12.0756
sex	-12.0757
▁appear	-12.0759
offline	-12.0763
▁...]	-12.0763
FOUND	-12.0763
listeners	-12.0764
▁smaller	-12.0765
▁produced	-12.0767
=[]):	-12.0775
profit	-12.0775
late	-12.0776
▁10))	-12.0778
3600	-12.0781
tra	-12.0782
▁enemy	-12.0782
0.9	-12.0784
▁pc	-12.0786
')))	-12.0786
posterior	-12.0788
bookmark	-12.0789
▁There	-12.0791
▁Apply	-12.0792
stddev	-12.0793
paginate	-12.0794
1":	-12.0796
▁displayed	-12.0797
900	-12.0799
talk	-12.08
nit	-12.0801
▁submission	-12.0802
192	-12.0806
2010	-12.0809
Complex	-12.081
trunk	-12.0811
+1))	-12.0812
3])	-12.0814
▁compatibility	-12.0816
▁handled	-12.0821
▁15,	-12.0826
assembly	-12.0831
applications	-12.0832
Checking	-12.0832
foreign	-12.0836
ear	-12.0837
klvm	-12.0838
▁syntax	-12.0838
Cat	-12.0839
fileno	-12.084
resolved	-12.084
▁tb	-12.0842
king	-12.0844
ya	-12.0846
▁duplicate	-12.0847
polar	-12.0847
implicit	-12.0849
▁\'{}	-12.0851
distro	-12.0852
ConnectionError	-12.0854
▁goes	-12.0856
!",	-12.0856
▁fac	-12.0857
RULE	-12.0857
bu	-12.0859
allocated	-12.086
\'")	-12.0861
boto	-12.0862
addCleanup	-12.0865
unsupported	-12.0865
denom	-12.0865
envelope	-12.0865
如果	-12.0865
lan	-12.0867
][2]	-12.0868
4())	-12.0871
transcript	-12.0871
800	-12.0872
Effect	-12.0873
号	-12.0875
▁sequences	-12.0876
▁pipe	-12.0877
RF	-12.0878
92	-12.0878
maxsize	-12.088
cancelled	-12.088
▁closest	-12.088
rewrite	-12.0881
=\'\')	-12.0881
artists	-12.0882
fwd	-12.0884
goods	-12.0888
gps	-12.0888
▁IDs	-12.0889
blocking	-12.089
timestep	-12.089
He	-12.0892
Errors	-12.0898
Columns	-12.0904
16)	-12.0904
▁assignment	-12.0905
87	-12.0909
Refresh	-12.0909
1;	-12.091
confirmed	-12.091
subsystem	-12.0911
▁evt	-12.0915
interest	-12.0915
nif	-12.0917
(400,	-12.0917
▁increment	-12.0918
ManyToManyField	-12.0918
percentile	-12.0919
distributions	-12.0923
discovery	-12.0924
mission	-12.0926
HP	-12.0926
simplify	-12.0932
RES	-12.0938
DP	-12.0945
argparse	-12.0946
death	-12.0948
{0}".	-12.095
graphs	-12.0951
countries	-12.0952
10)	-12.0953
SITE	-12.0956
-100	-12.0962
packets	-12.0962
Nested	-12.0962
▁projection	-12.0963
▁virtual	-12.0965
▁solve	-12.0967
stripe	-12.0967
BR	-12.0967
ated	-12.0971
Chunk	-12.0971
;\\	-12.0972
modal	-12.0974
MI	-12.0979
140	-12.0979
`")	-12.0981
▁validator	-12.0985
▁theano	-12.0987
battle	-12.0988
popen	-12.0988
explanation	-12.099
turns	-12.0991
LD	-12.0991
pkgs	-12.0991
bitmap	-12.0992
mutation	-12.0993
purge	-12.0995
Sql	-12.0995
{\'	-12.0996
▁disabled	-12.0997
Apply	-12.0998
chrome	-12.0998
RESULT	-12.1
Children	-12.1
ADDRESS	-12.1001
aaa	-12.1002
000000	-12.1003
▁Multi	-12.1004
Future	-12.1006
QVBoxLayout	-12.1006
qa	-12.1007
measurements	-12.101
closest	-12.1016
Execute	-12.1019
Btn	-12.102
hole	-12.1022
tearDown	-12.1024
operands	-12.1026
matrices	-12.1028
zy	-12.1028
SD	-12.1029
69	-12.1029
releases	-12.103
analyze	-12.1034
crash	-12.1035
abi	-12.1035
ffi	-12.1038
election	-12.1039
horizon	-12.1042
biases	-12.1042
)/(	-12.1045
north	-12.1046
▁по	-12.1049
DICT	-12.1049
english	-12.105
SyntaxError	-12.1052
tre	-12.1056
[8]	-12.1057
Share	-12.1057
startup	-12.1059
conflict	-12.106
tower	-12.106
}})	-12.1061
away	-12.1061
Rec	-12.1062
"][0]	-12.1062
auc	-12.1064
0.2	-12.1068
▁0.1,	-12.1071
writing	-12.1072
eig	-12.1075
supports	-12.1081
[1:-1]	-12.1082
License	-12.1083
eo	-12.1084
QSizePolicy	-12.1088
Tracker	-12.1088
closing	-12.1088
league	-12.109
dg	-12.109
rois	-12.1093
scaler	-12.1096
dao	-12.1099
Destroy	-12.1101
tight	-12.1102
vuln	-12.1104
chip	-12.1104
hor	-12.1104
▁formula	-12.1105
XY	-12.1105
datasource	-12.1106
94	-12.1106
docstring	-12.1107
tune	-12.1108
utilities	-12.1112
ative	-12.1112
La	-12.1113
imdb	-12.1113
▁tp	-12.1114
vpn	-12.1114
=(2,	-12.1115
chromosome	-12.1116
▁consider	-12.1116
▁0.01	-12.112
mut	-12.1124
Le	-12.1124
▁Primary	-12.1125
-5,	-12.1127
________________	-12.1132
▁didn	-12.1134
matplotlib	-12.1135
Ro	-12.1136
进行	-12.1137
ENT	-12.1138
=30,	-12.1138
3],	-12.114
LT	-12.1143
取	-12.1143
Const	-12.1144
[0]):	-12.1145
▁symbols	-12.1146
finite	-12.1153
builtins	-12.1153
observed	-12.1153
pyplot	-12.1154
▁performed	-12.1155
QRect	-12.1159
pie	-12.1162
32))	-12.1162
▁400)	-12.1163
usuario	-12.1165
chord	-12.1167
▁align	-12.1168
▁widgets	-12.1174
decorators	-12.1175
MF	-12.1175
fish	-12.1177
mimetype	-12.1179
evaluator	-12.1179
cho	-12.118
▁Determine	-12.1181
▁occurred	-12.1181
ku	-12.1182
eu	-12.1183
multipart	-12.1184
▁0.9	-12.1186
LED	-12.1188
EOF	-12.1193
translator	-12.1193
LS	-12.1196
ql	-12.1198
SSH	-12.1199
stress	-12.1203
advanced	-12.1204
Bus	-12.1205
configured	-12.1207
成功	-12.1208
Initial	-12.1209
jo	-12.1211
Pointer	-12.1212
texts	-12.1213
▁urlparse	-12.1218
sb	-12.1219
▁[4,	-12.122
morph	-12.1222
Par	-12.1222
directive	-12.1224
设置	-12.1225
▁Operators	-12.1229
grab	-12.123
▁4]	-12.123
gcp	-12.1232
QIcon	-12.1233
62	-12.1236
==0:	-12.1238
vgg	-12.1242
ITEM	-12.1242
rq	-12.1243
dj	-12.1246
yy	-12.125
growth	-12.1253
▁highest	-12.1254
[{}]	-12.1255
-20	-12.1261
facet	-12.1261
namespaced	-12.1264
▁various	-12.1265
▁unless	-12.1266
getenv	-12.1268
Chrome	-12.1269
filesystem	-12.1269
/1/	-12.1269
gpio	-12.1277
xe	-12.1279
grammar	-12.1279
So	-12.1282
sandbox	-12.1284
▁subnet	-12.1287
libraries	-12.1288
ami	-12.1289
▁^	-12.1289
FP	-12.129
passphrase	-12.1292
Circle	-12.1295
rendered	-12.1295
▁degrees	-12.1297
▁connections	-12.1299
[1][1]	-12.13
ful	-12.13
▁middle	-12.13
lis	-12.1301
▁в	-12.1301
8\')	-12.1302
▁curses	-12.1302
streaming	-12.1303
▁chart	-12.1305
Background	-12.1305
▁Http	-12.1307
ACK	-12.1307
4]	-12.1309
sentiment	-12.131
▁higher	-12.131
bounding	-12.1312
disks	-12.1313
nthat	-12.1313
=8,	-12.1314
▁certificate	-12.1315
nIn	-12.1316
Na	-12.1318
▁clone	-12.1318
contig	-12.132
>0	-12.132
triggers	-12.1321
performance	-12.1322
▁plotly	-12.1323
nth	-12.1324
▁includes	-12.1328
hover	-12.133
eat	-12.1332
endian	-12.1334
similar	-12.1336
iterate	-12.1336
verticalLayout	-12.1336
...\')	-12.1338
COL	-12.1338
nw	-12.1339
readStruct	-12.134
builds	-12.1341
▁depending	-12.1341
fer	-12.1342
IV	-12.1344
blah	-12.1344
Si	-12.1345
Act	-12.1346
▁asynchronously	-12.1348
▁unexpected	-12.1348
([[1,	-12.1349
▁'=',	-12.135
▁potential	-12.1353
(9,	-12.1354
ends	-12.1355
▁10),	-12.1356
XYZ	-12.1357
▁retrieved	-12.1357
▁dictionaries	-12.1359
}}}	-12.1359
mes	-12.136
8))	-12.136
Best	-12.1364
Links	-12.1368
▁piece	-12.1368
rebuild	-12.1374
▁keywords	-12.1375
delegate	-12.1379
Self	-12.1382
activations	-12.1384
▁docstring	-12.1385
Balance	-12.1386
IL	-12.1391
cumulative	-12.1391
71	-12.1393
revert	-12.1394
blend	-12.1395
ADDR	-12.14
timeseries	-12.1403
lead	-12.1404
REG	-12.1406
apple	-12.1406
there	-12.1406
▁workflow	-12.1409
symbolic	-12.141
chains	-12.1411
▁{}).	-12.1412
Alias	-12.1412
Connected	-12.1413
scrape	-12.1413
▁invoked	-12.1414
ici	-12.1414
pure	-12.1417
brief	-12.1423
ju	-12.1426
▁6:	-12.1429
▁specifying	-12.143
patcher	-12.1431
Phone	-12.1431
splitter	-12.1431
Rules	-12.1432
LABEL	-12.1435
EL	-12.1436
issuer	-12.1436
gauss	-12.1437
interpolate	-12.1439
▁performance	-12.1444
II	-12.1446
subparsers	-12.1446
RATE	-12.1448
[4],	-12.1448
▁making	-12.1449
请求	-12.1449
Notify	-12.1451
mnist	-12.1453
Rating	-12.1453
=0.1,	-12.1459
exploration	-12.1459
Gateway	-12.1459
Arguments	-12.1461
[1:]:	-12.1463
25,	-12.1463
▁pull	-12.1464
Mac	-12.1465
Dot	-12.1469
DataSet	-12.147
▁"".	-12.1472
traces	-12.1473
Docker	-12.1477
mov	-12.1477
rh	-12.1483
▁incorrect	-12.1484
badge	-12.1485
artifacts	-12.149
0\',	-12.1492
2'	-12.1494
More	-12.1495
alternate	-12.1495
DEVICE	-12.1496
opacity	-12.1498
dll	-12.1498
district	-12.1501
era	-12.1501
reduction	-12.1502
displayed	-12.1503
angular	-12.1506
diameter	-12.1508
DEF	-12.1509
!\\	-12.151
quest	-12.1512
restaurant	-12.1514
▁Product	-12.1518
recover	-12.1521
Include	-12.1522
▁having	-12.1523
parsing	-12.1523
Family	-12.1525
▁'+	-12.1525
vg	-12.1528
IPv	-12.1528
fsm	-12.1528
Texture	-12.1529
mutate	-12.1533
hyp	-12.1536
▁solver	-12.1536
Ind	-12.1538
tty	-12.1538
triangle	-12.1542
reactor	-12.1544
scr	-12.1545
▁newline	-12.1545
monthly	-12.155
▁transforms	-12.1551
▁distances	-12.1555
ctr	-12.1556
proof	-12.1556
StringProperty	-12.156
Gui	-12.1562
ä	-12.1564
Branch	-12.1566
▁had	-12.1569
EXPAND	-12.1571
digital	-12.1574
▁Adding	-12.1577
csvfile	-12.1577
(64,	-12.1578
prot	-12.1579
fu	-12.1592
WHITE	-12.1596
organisation	-12.1596
Bank	-12.1599
▁previously	-12.16
▁1})	-12.1602
▁Dictionary	-12.1606
law	-12.1609
Updated	-12.1611
Assign	-12.1613
screenshot	-12.1614
▁\'-\'	-12.1614
Solution	-12.1615
dTemporaryFile	-12.1618
Temperature	-12.1618
Raise	-12.1619
▁subscription	-12.1619
dyn	-12.1622
BLACK	-12.1623
▁locations	-12.1623
0001	-12.1624
(_('	-12.1626
32')	-12.1635
mechanism	-12.1635
meters	-12.1637
income	-12.1639
图片	-12.164
▁Perform	-12.1643
dlg	-12.1644
dialect	-12.1649
'%(	-12.165
6.0	-12.165
Verify	-12.1653
л	-12.1654
]})	-12.1656
Vote	-12.1657
▁signed	-12.1657
javascript	-12.1659
peers	-12.1661
correction	-12.1662
labeled	-12.1663
Modify	-12.1663
Al	-12.1663
simulate	-12.1664
relationships	-12.1665
overflow	-12.1665
("./	-12.1665
[0]["	-12.167
Encode	-12.1677
incorrect	-12.1679
capitalize	-12.1682
tries	-12.1686
stages	-12.1686
outs	-12.1687
materials	-12.1689
ranking	-12.169
Normalize	-12.1691
▁255)	-12.1691
submissions	-12.1692
130	-12.1693
CON	-12.1693
subnets	-12.1694
Resources	-12.1694
/\')	-12.1695
AN	-12.1695
visual	-12.17
▁let	-12.1704
▁wf	-12.1707
0.7	-12.1708
Ra	-12.1713
NC	-12.1713
▁linked	-12.1717
▁[-	-12.1719
▁ready	-12.1719
Fast	-12.1724
Decorator	-12.1727
validity	-12.1728
dem	-12.173
子	-12.1734
bench	-12.1735
workbook	-12.1737
configurations	-12.1741
ador	-12.1742
ses	-12.1743
▁gives	-12.1744
DecimalField	-12.1744
Used	-12.1744
meeting	-12.1746
weak	-12.175
▁worksheet	-12.175
是否	-12.1752
outgoing	-12.1754
SU	-12.1755
implementation	-12.1757
skin	-12.1758
Commands	-12.1758
hmac	-12.176
urljoin	-12.1761
▁specification	-12.1765
fld	-12.1765
▁consumer	-12.1769
qui	-12.177
quotes	-12.1772
▁0.4	-12.1774
Metrics	-12.1774
Capture	-12.1774
FR	-12.1775
John	-12.1779
emoji	-12.178
spectral	-12.178
[9]	-12.1783
sampled	-12.1783
TextInput	-12.1788
Now	-12.1788
integral	-12.1791
▁imported	-12.1792
456	-12.1795
PASS	-12.1796
Optimizer	-12.1797
subreddit	-12.18
Attachment	-12.1803
dos	-12.1803
▁Can	-12.1804
Hi	-12.1804
Animation	-12.1807
fontsize	-12.1809
stars	-12.181
Shared	-12.1815
▁attention	-12.1817
skipIf	-12.182
QLineEdit	-12.182
▁combined	-12.1822
fid	-12.1822
7.0	-12.1823
Consumer	-12.1828
equality	-12.1829
FRAME	-12.183
ONLY	-12.183
Gradient	-12.183
▁dis	-12.1833
rejected	-12.1834
ymin	-12.1835
FT	-12.1837
0-9	-12.1838
voc	-12.1838
▁Google	-12.1839
Paths	-12.184
▁"1"	-12.184
▁dependency	-12.1841
startTime	-12.1841
predictor	-12.1843
estimators	-12.1845
rms	-12.1846
hdu	-12.1847
SF	-12.1847
类型	-12.1847
▁capture	-12.1851
OO	-12.1852
played	-12.1858
pri	-12.186
▁copied	-12.1862
declared	-12.1864
mic	-12.1865
your	-12.1866
workdir	-12.1867
curves	-12.1869
Rectangle	-12.1872
puzzle	-12.1873
ViewSet	-12.1877
▁inter	-12.1879
COM	-12.188
legal	-12.1881
Contract	-12.1883
▁managed	-12.1886
▁ttk	-12.1889
guild	-12.1891
▁reached	-12.1892
enrollment	-12.1894
MOD	-12.1895
▁assumed	-12.1907
flows	-12.1908
CENTER	-12.1909
QQ	-12.1911
quiz	-12.1914
---	-12.1914
throttle	-12.1916
ZZ	-12.1917
plone	-12.1917
flex	-12.1922
brush	-12.1922
Station	-12.1923
celery	-12.1923
isChecked	-12.1925
要	-12.1926
-1],	-12.1926
queued	-12.1927
=(0,	-12.1927
列	-12.1927
▁functionality	-12.1928
BATCH	-12.1928
setupUi	-12.193
paused	-12.1932
_2(	-12.1932
▁incoming	-12.1932
SMTP	-12.1936
zz	-12.1937
73	-12.1938
USD	-12.1939
GS	-12.194
midi	-12.1942
▁gc	-12.1944
rack	-12.1945
xaxis	-12.1946
starts	-12.1947
mlp	-12.1949
combinations	-12.195
dual	-12.1951
INTER	-12.1951
thr	-12.1951
\'][0][\'	-12.1952
probabilities	-12.1952
00:00	-12.1953
xor	-12.1954
;"	-12.1955
▁processes	-12.1955
lease	-12.1956
POINT	-12.196
Numeric	-12.1961
WINDOW	-12.1961
8("	-12.1963
▁replaced	-12.1964
rfc	-12.1967
travel	-12.1968
TRAIN	-12.1969
-1))	-12.1969
Exchange	-12.1971
lint	-12.1971
ari	-12.1973
temporary	-12.1975
Statistics	-12.1976
FIELDS	-12.1976
Sparse	-12.1977
mention	-12.1979
==============	-12.198
substitute	-12.198
trend	-12.1981
urlparse	-12.1982
[2]))	-12.1982
modification	-12.1985
tagged	-12.1987
▁larger	-12.1988
connectivity	-12.1988
tracer	-12.1989
MPI	-12.1989
82	-12.199
标	-12.199
动	-12.1992
に	-12.1997
personal	-12.1999
topo	-12.2001
gte	-12.2002
<<	-12.2002
odd	-12.2004
visitor	-12.2004
Stub	-12.2008
Colour	-12.2011
vect	-12.2015
▁Store	-12.2015
=[])	-12.2017
navigation	-12.2018
likes	-12.2019
scrapy	-12.2019
▁passing	-12.2021
verse	-12.2021
HA	-12.2022
feeds	-12.2024
diffs	-12.2024
日	-12.2025
fork	-12.2026
postgres	-12.2031
Fraction	-12.2033
▁aux	-12.2033
Im	-12.2034
Before	-12.2043
ctype	-12.2045
2048	-12.2045
specification	-12.2047
yo	-12.2051
Piece	-12.2052
▁64,	-12.2056
transformed	-12.2057
mos	-12.2058
з	-12.206
-1):	-12.206
ABLE	-12.206
fv	-12.206
located	-12.206
BO	-12.2061
IOError	-12.2062
▁cmds	-12.2068
ah	-12.2073
calibration	-12.2077
battery	-12.2078
aligned	-12.2082
。\	-12.2085
(_(\'	-12.2086
unlock	-12.2087
Sa	-12.2088
built	-12.209
experiments	-12.2091
crit	-12.2097
gridLayout	-12.2098
Robot	-12.2099
kg	-12.2099
?",	-12.2101
plant	-12.2105
natural	-12.2105
RR	-12.2107
apikey	-12.2107
QuerySet	-12.2107
▁posts	-12.2108
Cap	-12.2108
SPACE	-12.2109
OAuth	-12.2111
Alpha	-12.2111
▁references	-12.2112
FOO	-12.2114
conditional	-12.2115
followers	-12.2115
tif	-12.2116
aut	-12.2118
80,	-12.2118
scoring	-12.2118
▁slow	-12.2121
▁bounding	-12.2122
erase	-12.2123
▁updating	-12.2127
latin	-12.2129
WS	-12.2131
persist	-12.2131
Poll	-12.2131
▁dates	-12.2131
accessor	-12.2131
fiscal	-12.214
▁moves	-12.2141
▁Person	-12.2144
heuristic	-12.2144
TITLE	-12.2144
locate	-12.2145
preprocessing	-12.2145
FE	-12.2146
fuzzy	-12.2148
Retrieve	-12.2149
▁corpus	-12.215
会	-12.2152
above	-12.2152
las	-12.2153
Contains	-12.2154
(1.0	-12.2154
databases	-12.2158
qq	-12.2158
signing	-12.2159
below	-12.2162
prepared	-12.2162
Radius	-12.2162
Lazy	-12.2163
Nothing	-12.2164
▁epochs	-12.2166
注	-12.2168
Convolution	-12.2168
▁peer	-12.2169
newline	-12.217
chosen	-12.217
OFP	-12.217
(\'.\')	-12.2172
12:	-12.2173
[2]/	-12.2175
▁4],	-12.218
AndReturn	-12.2181
VALUES	-12.2184
give	-12.2185
vip	-12.2186
▁dlg	-12.2187
FOLDER	-12.2189
REQUIRED	-12.2189
RETURN	-12.2191
▁big	-12.2192
▁generic	-12.2193
ASCII	-12.2196
retcode	-12.2197
▁...\	-12.2198
recurse	-12.2203
}\',	-12.2204
refund	-12.2205
mqtt	-12.2207
Proto	-12.2207
widths	-12.2208
astropy	-12.2208
quarter	-12.221
poke	-12.2212
taken	-12.2214
CHAR	-12.2214
Opt	-12.2216
Hz	-12.222
Bits	-12.2221
[10]	-12.2222
▁defines	-12.2222
poster	-12.2226
Artist	-12.2231
interrupt	-12.2233
5',	-12.2235
skipped	-12.2236
ics	-12.2236
?\\	-12.2241
----	-12.2245
▁mandatory	-12.2245
FLOAT	-12.2246
▁numeric	-12.2246
Po	-12.2249
Band	-12.225
bracket	-12.2254
▁further	-12.2255
Li	-12.226
CLI	-12.2261
▁5))	-12.2261
Negative	-12.2262
wildcard	-12.2263
scratch	-12.2265
absent	-12.2266
tempfile	-12.2267
drivers	-12.2268
LDAP	-12.2269
rbridge	-12.2269
About	-12.2269
▁pm	-12.227
addHandler	-12.2271
generators	-12.2271
warehouse	-12.2273
reddit	-12.2273
▁synchronous	-12.2275
xmax	-12.2278
elevation	-12.2278
Cart	-12.2279
thresholds	-12.2282
▁beam	-12.2285
Demo	-12.2289
fecha	-12.2291
futures	-12.2292
Correct	-12.2293
xls	-12.2294
Sec	-12.2295
hy	-12.2296
lost	-12.2298
DI	-12.2299
▁Represents	-12.2301
SAME	-12.2303
Google	-12.2304
-8"))	-12.2305
▁workspace	-12.2306
solutions	-12.2307
Frequency	-12.2307
▁fout	-12.2308
assertAllEqual	-12.2309
▁building	-12.2309
trading	-12.2311
seeds	-12.2312
makeOne	-12.2313
BGR	-12.2315
recorder	-12.2318
Bound	-12.2319
NAMES	-12.2319
▁mimetype	-12.2319
warp	-12.2321
▁formatter	-12.2322
当前	-12.2323
Tr	-12.2324
lev	-12.2325
counters	-12.2327
DESC	-12.2328
PDF	-12.2329
▁mommy	-12.2333
]\\	-12.2333
derivative	-12.2335
▁{1}".	-12.2337
BUILD	-12.2343
405	-12.2345
clustering	-12.2345
TER	-12.2346
Eq	-12.2347
molecule	-12.2348
parm	-12.2348
=_('	-12.235
▁chr	-12.2352
semi	-12.2354
bee	-12.2354
TI	-12.2355
statistic	-12.2355
iq	-12.2359
▁third	-12.236
oy	-12.236
-01	-12.236
▁upgrade	-12.2362
pseudo	-12.2364
FAIL	-12.2365
ciphertext	-12.2367
Evaluate	-12.2368
5*	-12.2368
mob	-12.2374
Reading	-12.2377
outline	-12.238
002	-12.2381
(8)	-12.2382
%20	-12.2382
wikipedia	-12.2383
Extended	-12.2385
prune	-12.2386
zi	-12.2387
Mi	-12.2388
▁stores	-12.2388
Original	-12.2389
▁hold	-12.2395
Changes	-12.2399
mute	-12.2399
▁codecs	-12.24
▁doctest	-12.24
desktop	-12.24
HttpRequest	-12.2401
▁cond	-12.2403
-11	-12.2404
stacks	-12.241
▁0.001	-12.2412
▁ship	-12.2415
▁cart	-12.2415
rig	-12.2418
Maximum	-12.2419
▁tgt	-12.242
▁factories	-12.2421
cities	-12.2421
VAL	-12.2421
▁9)	-12.2422
Incorrect	-12.2424
▁-1):	-12.2427
Fixture	-12.2428
separated	-12.2429
gpg	-12.2429
▁1:]	-12.243
Hidden	-12.2431
▁"$	-12.2433
("{	-12.2435
CREATED	-12.2436
fatal	-12.2436
Callable	-12.2437
its	-12.2441
п	-12.2445
Destination	-12.2445
trained	-12.2445
south	-12.2451
glance	-12.2452
64(	-12.2453
computer	-12.2454
(\'./	-12.2455
izer	-12.2456
Utility	-12.2456
▁transitions	-12.2457
▁orientation	-12.246
lite	-12.2464
oh	-12.2466
participants	-12.2467
---------	-12.247
Std	-12.247
specified	-12.2473
mate	-12.2477
difficulty	-12.2478
Retry	-12.2479
Energy	-12.248
DataType	-12.248
▁saving	-12.2482
intro	-12.2483
_400_	-12.2483
▁addresses	-12.2484
▁tolerance	-12.2486
Dump	-12.2489
stopping	-12.2489
▁Some	-12.2489
Album	-12.2491
exporter	-12.2493
folds	-12.2497
firmware	-12.2499
amplitude	-12.2499
(50,	-12.2499
deltas	-12.2501
accel	-12.2501
▁cleanup	-12.2502
pytz	-12.2503
perc	-12.2505
polygons	-12.2507
replacement	-12.2509
INTEGER	-12.2509
ExpandedName	-12.251
Big	-12.2518
0.25	-12.2519
BAR	-12.2521
frontend	-12.2521
▁pady	-12.2522
interpolation	-12.2523
Inter	-12.2529
ImageField	-12.253
sibling	-12.253
'^	-12.2534
reflect	-12.2535
conda	-12.2537
1.4	-12.254
)/2	-12.2541
dig	-12.2541
Excel	-12.2542
8',	-12.2543
processors	-12.2544
provided	-12.2544
Reason	-12.2545
▁underlying	-12.2549
Possible	-12.255
▁deal	-12.2551
zk	-12.2551
▁ser	-12.2552
▁restart	-12.2553
▁si	-12.2555
dots	-12.2557
▁human	-12.2559
teardown	-12.2559
grouping	-12.256
spans	-12.2561
▁middleware	-12.2565
directed	-12.2565
collapse	-12.2566
▁с	-12.2568
▁moving	-12.2571
mit	-12.2571
Indices	-12.2572
grpc	-12.2572
triple	-12.2572
Employee	-12.2574
continuous	-12.2579
yaxis	-12.2579
pth	-12.2584
lens	-12.2591
Cycle	-12.2591
Hex	-12.2592
includes	-12.2593
!!!	-12.2593
BadRequest	-12.2595
une	-12.2595
EE	-12.2597
fluid	-12.2602
Instances	-12.2604
automatic	-12.2605
CURRENT	-12.2607
pq	-12.2608
▁sentences	-12.261
▁filled	-12.261
bib	-12.2612
LIB	-12.2615
dilation	-12.2616
pole	-12.2617
▁largest	-12.2619
welcome	-12.2621
()\').	-12.2621
▁measure	-12.2622
compact	-12.2624
deconv	-12.2624
vk	-12.2624
argsort	-12.2624
=============	-12.2628
Requests	-12.2632
qual	-12.2633
Di	-12.2635
consts	-12.2635
▁13,	-12.2638
dT	-12.2638
carrier	-12.264
/\',	-12.264
memo	-12.2641
associate	-12.2642
covariance	-12.2642
▁cycle	-12.2644
▁levels	-12.2645
((2,	-12.2646
isation	-12.2648
behavior	-12.2651
计算	-12.2653
▁CSV	-12.2653
(\'\')	-12.2655
signer	-12.2662
ile	-12.2664
mixin	-12.2664
Quote	-12.2667
clipboard	-12.2668
colored	-12.2675
("//	-12.2675
uris	-12.2675
Actual	-12.2677
kt	-12.2677
▁seems	-12.2678
tagname	-12.2679
Break	-12.2683
rsplit	-12.2684
fade	-12.2686
pdu	-12.2687
fav	-12.2687
could	-12.2689
▁maybe	-12.2693
localtime	-12.2694
Slider	-12.2694
▁ticket	-12.2695
singular	-12.27
体	-12.27
▁basis	-12.2701
primes	-12.2705
-4,	-12.2706
submitted	-12.2708
Filters	-12.2708
1\':	-12.271
coefficient	-12.2712
Fetch	-12.2713
repositories	-12.2714
namedtuple	-12.2715
vv	-12.2715
\')))	-12.2719
coefficients	-12.2719
lemma	-12.272
ker	-12.2721
sentry	-12.2722
▁waiting	-12.2723
incr	-12.2723
carry	-12.2724
Connector	-12.2725
▁sr	-12.2732
analog	-12.2732
://%	-12.2734
Song	-12.2734
lets	-12.2736
SCREEN	-12.2738
▁0.05	-12.2738
▁compression	-12.2739
MEDIA	-12.2739
graphic	-12.274
Axes	-12.2741
expressions	-12.2743
decoding	-12.2744
timesteps	-12.2744
vcs	-12.2744
BS	-12.2744
ALIGN	-12.2747
={})	-12.2748
Building	-12.2748
▁sympy	-12.2755
类	-12.2756
▁{!	-12.2757
compiled	-12.2758
▁shown	-12.2758
ema	-12.2762
名称	-12.2762
instr	-12.2764
[~	-12.2764
envs	-12.2764
nz	-12.2767
pal	-12.2767
CommandError	-12.2768
White	-12.2768
fil	-12.277
night	-12.2771
globvars	-12.2771
Adam	-12.2772
▁overlap	-12.2772
11:	-12.2773
▁produce	-12.2773
Pay	-12.2774
Plane	-12.2776
prepend	-12.2777
MR	-12.2777
▁reads	-12.278
Coordinate	-12.2783
▁fallback	-12.2786
)*(	-12.2787
▁care	-12.2789
TA	-12.2789
Peer	-12.2789
▁fact	-12.2789
(10):	-12.2792
monster	-12.2794
men	-12.2795
▁recipient	-12.2796
near	-12.28
Solver	-12.28
RESOURCE	-12.2803
▁10000	-12.2805
100,	-12.2806
FA	-12.2806
▁generation	-12.2807
▁[]}	-12.2808
contrast	-12.281
contextmanager	-12.2811
▁alignment	-12.2811
TStr	-12.2813
GE	-12.2813
"\')	-12.2814
▁Abstract	-12.2818
">\'	-12.2818
123456	-12.2819
▁"{0}	-12.2819
stacked	-12.2822
wish	-12.2822
']}	-12.2823
numberOf	-12.2824
TInt	-12.2825
extraction	-12.2827
ROLE	-12.2829
meas	-12.2829
▁album	-12.283
5),	-12.2831
punctuation	-12.2833
Successfully	-12.2833
▁cipher	-12.2835
fitted	-12.2835
=-1):	-12.2837
▁outer	-12.2839
reqs	-12.2843
removal	-12.2844
▁##########	-12.2844
Replace	-12.2845
▁places	-12.2847
--------	-12.2848
Pack	-12.2849
Terminal	-12.2849
Confirm	-12.285
"^	-12.285
FUNCTION	-12.285
[:3]	-12.285
vif	-12.2851
bytearray	-12.2851
fqdn	-12.2851
本	-12.2857
9999	-12.2858
=\\"	-12.2861
Trade	-12.2864
webapp	-12.2865
lw	-12.2865
itertools	-12.2866
')[0]	-12.2867
▁likely	-12.2869
Launch	-12.2869
▁'_'	-12.287
▁colour	-12.287
RUNNING	-12.2872
Modifier	-12.2872
accessible	-12.2874
▁accepted	-12.2877
BOX	-12.288
GLOBAL	-12.2882
▁matrices	-12.2884
confusion	-12.2889
collide	-12.289
affect	-12.2891
sanity	-12.2891
▁alert	-12.2894
▁&\	-12.2894
debit	-12.2894
OC	-12.2898
ParseError	-12.2898
quotas	-12.2899
singleton	-12.2902
grey	-12.2902
Validate	-12.2903
▁leave	-12.2904
nEXAMPLES	-12.2905
vx	-12.2906
suggestion	-12.2907
Mem	-12.2909
ghost	-12.2911
recon	-12.2913
bert	-12.2913
▁variance	-12.2914
▁parents	-12.2916
lar	-12.2917
exercise	-12.2918
▁0.8	-12.2918
moment	-12.2919
器	-12.2919
RSA	-12.2922
GPU	-12.2923
(128,	-12.2924
▁classification	-12.293
▁Windows	-12.2932
tostring	-12.2932
pac	-12.2933
kk	-12.2933
9)	-12.2935
fly	-12.2935
mar	-12.2935
rpn	-12.2936
▁Prepare	-12.2936
***	-12.2939
4",	-12.294
Attack	-12.294
件	-12.294
▁instruction	-12.2941
construction	-12.2941
Black	-12.2942
han	-12.2943
▁"{}"	-12.2943
rich	-12.2943
▁why	-12.2945
▁runtime	-12.2945
blobs	-12.2949
jac	-12.2949
tender	-12.2949
16:	-12.2952
spread	-12.2955
▁documents	-12.2956
psf	-12.2957
rgba	-12.2957
[-1,	-12.2957
Lower	-12.2958
holidays	-12.2959
requirement	-12.2962
FILENAME	-12.2963
▁"_"	-12.2963
balancer	-12.2965
Sentence	-12.2967
▁autospec	-12.2968
▁40	-12.2969
kick	-12.2969
01.	-12.297
virt	-12.297
ute	-12.2971
Currency	-12.2973
▁indicate	-12.2974
installer	-12.2976
▁throw	-12.298
▁dct	-12.2981
Dependency	-12.2981
DROP	-12.2982
Gene	-12.2982
Acc	-12.2984
图	-12.2984
venv	-12.2984
▁Reset	-12.2984
▁hparams	-12.2987
MENT	-12.2988
[0]+	-12.2988
indx	-12.2989
booking	-12.2989
Declaration	-12.299
yaw	-12.2992
输入	-12.2992
subtree	-12.2993
Eval	-12.2994
Norm	-12.2994
placeholders	-12.2997
75,	-12.2997
reserve	-12.2998
scp	-12.2998
则	-12.2998
Restore	-12.2999
delim	-12.2999
Operations	-12.3001
sci	-12.3003
ó	-12.3004
existent	-12.3008
Invoice	-12.3008
▁restrict	-12.3009
но	-12.3009
cw	-12.301
userId	-12.3011
Math	-12.3013
PV	-12.3016
REST	-12.3016
%.2	-12.3017
ка	-12.3017
armor	-12.3018
PF	-12.3019
302	-12.3019
incomplete	-12.3019
GPIO	-12.302
▁poly	-12.3027
ACL	-12.3031
270	-12.3031
Redis	-12.3032
traverse	-12.3033
adjacency	-12.3038
1.0/	-12.3039
mocked	-12.3039
zh	-12.304
处理	-12.3041
redraw	-12.3042
('',	-12.3043
keypair	-12.3045
conj	-12.3045
nothing	-12.3046
机	-12.3046
▁horizontal	-12.3047
vers	-12.3047
roc	-12.3049
aes	-12.3051
unable	-12.3053
[1][0]	-12.3053
▁relay	-12.3054
▁#==============	-12.3056
amt	-12.3057
Git	-12.3057
失败	-12.3058
owned	-12.3058
circ	-12.3059
Manage	-12.3059
▁Course	-12.306
需要	-12.3062
Numpy	-12.3063
▁decorated	-12.3065
LM	-12.3065
▁estimate	-12.3071
▁contained	-12.3072
horizontalLayout	-12.3075
▁packed	-12.3079
Extractor	-12.308
onchange	-12.3084
deal	-12.3086
bottleneck	-12.3086
}'	-12.3086
asm	-12.3088
Mapper	-12.3088
=64,	-12.309
▁stdin	-12.3091
((3,	-12.3093
increase	-12.3096
")),	-12.3098
kws	-12.3099
Health	-12.3099
[1:],	-12.3101
film	-12.3102
patched	-12.3106
vartype	-12.3106
paired	-12.3107
ideal	-12.3108
ji	-12.311
▁trainable	-12.311
early	-12.3111
logit	-12.3111
dut	-12.3115
▁few	-12.3119
rk	-12.3124
transformation	-12.3125
Creation	-12.3126
Pick	-12.3126
Calendar	-12.3126
kern	-12.313
2"	-12.313
=1000,	-12.3132
svm	-12.3133
▁population	-12.3135
cpus	-12.3138
10(	-12.3138
对象	-12.3138
/")	-12.3139
altitude	-12.3141
neighbour	-12.3141
-3)	-12.3142
Same	-12.3144
Freq	-12.3144
Classes	-12.3145
composition	-12.3148
stretch	-12.3149
Epoch	-12.315
jp	-12.3152
NX	-12.3152
assessment	-12.3152
mocker	-12.3153
125	-12.3155
adjusted	-12.3155
Alignment	-12.3158
hybrid	-12.3158
▁magic	-12.316
blur	-12.316
Resize	-12.3163
{0}\\	-12.3163
facility	-12.3164
clk	-12.3165
brick	-12.3166
homepage	-12.3168
▁authenticate	-12.3169
▁quality	-12.3169
detected	-12.3171
integrate	-12.3175
vf	-12.3177
(30)	-12.3178
paginator	-12.3178
vision	-12.3178
▁Alembic	-12.3181
▁catch	-12.3181
protocols	-12.3183
▁coefficients	-12.3184
▁listed	-12.3186
Age	-12.3187
Fire	-12.3189
AGENT	-12.3193
sqlalchemy	-12.3193
converted	-12.3195
citation	-12.3195
restriction	-12.3196
developer	-12.3196
▁[("	-12.32
affected	-12.3201
700	-12.3201
localctx	-12.3205
Quit	-12.3205
aware	-12.3207
Tx	-12.3208
animal	-12.3208
EP	-12.3209
(7)	-12.3211
SAMPLE	-12.3211
stim	-12.3212
arrival	-12.3213
AppConfig	-12.3219
Decode	-12.3219
ez	-12.3221
▁happens	-12.3221
▁linewidth	-12.3221
▁{0:	-12.3222
TD	-12.3223
symmetry	-12.3224
byref	-12.3226
gem	-12.3226
smoothing	-12.3226
shortcut	-12.3229
ura	-12.3229
skills	-12.323
PROTOCOL	-12.3231
xticks	-12.3232
gym	-12.3233
setChecked	-12.3237
worksheet	-12.3238
Categorical	-12.3239
Circuit	-12.3239
Permissions	-12.3241
▁optimization	-12.3244
svn	-12.3246
TASK	-12.3246
elastic	-12.3247
Delay	-12.3247
lientRawResponse	-12.3248
▁fully	-12.325
]+)	-12.3252
结果	-12.3253
▁encrypted	-12.3256
Submission	-12.3257
▁downloaded	-12.3258
('#	-12.3258
▁come	-12.3258
marshal	-12.3259
viewport	-12.326
MenuItem	-12.326
Horizontal	-12.3261
▁hack	-12.3261
5],	-12.3261
4().	-12.3262
overview	-12.3265
220	-12.3268
Pe	-12.3268
FL	-12.327
350	-12.3271
▁particle	-12.3273
人	-12.3275
passes	-12.3276
outside	-12.3277
▁attached	-12.328
GAME	-12.328
XX	-12.328
Pen	-12.3281
保存	-12.3282
replicas	-12.3282
▁1.,	-12.3285
▁[{\'	-12.3285
▁Plot	-12.3286
▁获取	-12.3286
directions	-12.3286
yr	-12.3286
▁0.7	-12.3287
tickets	-12.3291
{"	-12.3292
pep	-12.3294
ky	-12.3296
']})	-12.3297
4")	-12.3298
delayed	-12.3299
regularization	-12.3301
circular	-12.3303
▁past	-12.3305
dependent	-12.3305
8000	-12.3308
▁elapsed	-12.3308
voxel	-12.331
}")	-12.3311
▁station	-12.3312
Deferred	-12.3314
Mu	-12.3318
bra	-12.332
Bo	-12.3322
IndexError	-12.3324
findAll	-12.3324
RD	-12.3325
▁tau	-12.3327
shards	-12.3328
incident	-12.3328
syslog	-12.3329
Uri	-12.333
SCHEMA	-12.3332
orbit	-12.3332
$\',	-12.3333
▁segments	-12.3338
algorithms	-12.334
temporal	-12.3343
OD	-12.3343
differ	-12.3344
dropped	-12.3348
(\'{	-12.3348
Blue	-12.3348
kernels	-12.3349
TEMP	-12.335
105	-12.335
00'	-12.3351
2.7	-12.3353
subdomain	-12.3353
(12,	-12.3353
respond	-12.3354
▁populate	-12.3354
descriptors	-12.3357
coins	-12.3357
并	-12.3358
sense	-12.3359
------\	-12.336
45,	-12.3361
reboot	-12.3362
Publisher	-12.3363
Align	-12.3367
QColor	-12.3367
cats	-12.3369
Are	-12.3369
jacobian	-12.337
Rotation	-12.337
hive	-12.3371
ward	-12.3371
▁checksum	-12.3373
▁Callable	-12.3374
MODULE	-12.3374
Gaussian	-12.3375
GetValue	-12.3375
coco	-12.3375
Drive	-12.3382
dpi	-12.3382
fut	-12.3382
quoted	-12.3384
translated	-12.3384
-15	-12.3389
RANGE	-12.3389
▁filtering	-12.3391
NI	-12.3392
▁Takes	-12.3398
cen	-12.3401
2":	-12.3402
CALL	-12.3404
determine	-12.3405
Cli	-12.3406
BIT	-12.3407
▁\'0\'	-12.3408
restricted	-12.3408
UV	-12.3409
ellipse	-12.3412
Defined	-12.3414
(".")	-12.3414
interpreter	-12.3415
Js	-12.3415
equation	-12.3416
▁Converts	-12.3417
iff	-12.342
)#	-12.342
Samples	-12.3421
▁ndb	-12.3422
(32,	-12.343
▁plane	-12.343
__),	-12.343
Ver	-12.3431
writable	-12.3432
lights	-12.3432
Uniform	-12.3434
ala	-12.3434
Instrument	-12.3435
▁forwards	-12.3437
▁15)	-12.3439
fib	-12.3439
opponent	-12.344
ymax	-12.3442
Pipe	-12.3446
Pad	-12.3448
▁specifies	-12.345
TV	-12.345
1_1	-12.3451
▁transformed	-12.3452
")))	-12.3454
assertion	-12.3456
▁tkinter	-12.3459
▁degree	-12.3463
-2]	-12.3465
▁problems	-12.3466
");	-12.3468
fresh	-12.3468
LY	-12.3468
cgi	-12.3472
VERTICAL	-12.3473
OVER	-12.3477
▁peak	-12.3478
▁immediately	-12.3479
strike	-12.3479
opcode	-12.3481
HH	-12.3482
Datetime	-12.3483
=6,	-12.3485
ster	-12.3485
usb	-12.3486
▁several	-12.3486
bonds	-12.3488
httpretty	-12.3488
contexts	-12.3489
augment	-12.349
Charge	-12.3491
Lo	-12.3491
ale	-12.3495
[5])	-12.3496
FILTER	-12.3499
evidence	-12.35
seat	-12.35
rsp	-12.3501
rotated	-12.3501
▁0.1)	-12.3503
▁datasets	-12.3505
Collector	-12.3505
+\\	-12.3507
simulator	-12.3509
UNIT	-12.3511
computation	-12.3514
Weights	-12.3514
rolling	-12.3515
eigen	-12.3516
Prob	-12.3517
KB	-12.3517
409	-12.3518
/@	-12.3519
chem	-12.3519
$',	-12.3521
▁hard	-12.3522
posted	-12.3522
(16,	-12.3524
Reverse	-12.3528
-0.1	-12.353
4')	-12.3532
included	-12.3532
▁manifest	-12.3533
м	-12.3534
▁criteria	-12.3536
bugs	-12.3537
errHandler	-12.3537
john	-12.3539
▁liste	-12.3539
ail	-12.3542
maxlen	-12.3542
MAIN	-12.3544
snmp	-12.3544
succeeded	-12.3544
▁derived	-12.3547
dbname	-12.3548
▁corresponds	-12.3552
=_(\'	-12.3553
{4}	-12.3553
▁StringField	-12.3556
Money	-12.3557
ric	-12.3559
0.15	-12.3561
wavelength	-12.3565
kappa	-12.3567
elm	-12.3568
[0:2]	-12.357
recurrent	-12.3571
experience	-12.3571
forever	-12.3572
[0][0],	-12.3572
Override	-12.3574
REMOTE	-12.3575
doi	-12.3575
nasynchronous	-12.3576
provisioning	-12.3577
▁'{0}	-12.3577
=7)	-12.3578
telegram	-12.3578
calculation	-12.3578
▁neighbor	-12.358
ncols	-12.3581
PLAYER	-12.3582
Mass	-12.3582
CAN	-12.3582
ug	-12.3584
Binding	-12.3585
1\']	-12.3586
按	-12.3587
enumerate	-12.3587
nwith	-12.3587
▁mapped	-12.3589
LOGIN	-12.3589
salary	-12.359
normpath	-12.3591
▁tries	-12.3595
rights	-12.3597
lift	-12.3601
grep	-12.3602
▁gp	-12.3602
FLAG	-12.3603
▁looks	-12.3605
RB	-12.3606
▁fileName	-12.361
expense	-12.361
다	-12.3611
phy	-12.3612
succeed	-12.3613
icontains	-12.3614
Relative	-12.3614
Small	-12.3614
('{	-12.3616
14,	-12.3618
LOW	-12.362
errmsg	-12.362
▁weighted	-12.3622
480	-12.3622
定	-12.3624
▁letters	-12.3625
completions	-12.3626
recipes	-12.3626
FloatTensor	-12.3628
▁observed	-12.3631
skeleton	-12.3632
bmp	-12.3633
cause	-12.3635
cer	-12.3636
[0,0]	-12.3636
Sp	-12.3636
appliance	-12.3638
Green	-12.3641
Qu	-12.3641
▁important	-12.3643
;")	-12.3644
▁kparams	-12.3644
cosine	-12.3644
hsv	-12.3645
(256,	-12.3645
▁helpers	-12.3645
▁scaling	-12.3647
ure	-12.365
universe	-12.365
minimal	-12.3657
typing	-12.3657
ey	-12.3657
KEYS	-12.3657
前	-12.3659
Representation	-12.3663
uuids	-12.3663
centered	-12.3663
###	-12.3665
▁ofwhat	-12.3667
viz	-12.3667
Vi	-12.3667
wy	-12.3668
Skipping	-12.3672
Colors	-12.3672
architecture	-12.3676
▁Gaussian	-12.3678
diagram	-12.3679
▁\'*\'	-12.3681
过	-12.3683
QHBoxLayout	-12.3683
isValid	-12.3687
▁turtle	-12.3688
Need	-12.369
=0.1)	-12.369
boss	-12.3691
▁faster	-12.3691
Buy	-12.3691
▁increase	-12.3693
([2,	-12.3693
creating	-12.3694
Adding	-12.3694
interact	-12.3694
assertGreater	-12.3696
▁[5,	-12.3698
Records	-12.37
Observer	-12.37
新	-12.3702
cvtColor	-12.3702
monitoring	-12.3702
Resolver	-12.3705
▁species	-12.3707
31,	-12.3709
sect	-12.3709
▁looking	-12.3711
ION	-12.3711
operate	-12.3714
5]	-12.3715
libvirt	-12.3715
ways	-12.3718
▁lowercase	-12.3722
QA	-12.3722
▁resolved	-12.3723
▁pdb	-12.3723
%.3	-12.3723
Market	-12.3724
(\'{}	-12.3724
Entries	-12.3726
fullpath	-12.3727
▁padx	-12.3729
▁1}	-12.3731
Removing	-12.3733
sents	-12.3734
When	-12.3735
▁processor	-12.3738
15,	-12.3738
▁11)	-12.374
▁Kaltura	-12.374
invocation	-12.3741
tran	-12.3741
cool	-12.3743
▁sm	-12.3745
Forbidden	-12.3746
理	-12.3747
PARAMS	-12.3747
▁signals	-12.3747
consumed	-12.3748
▁away	-12.375
Something	-12.3751
posix	-12.3751
interaction	-12.3751
Accuracy	-12.3753
terminated	-12.3754
Management	-12.3756
!!	-12.3757
▁VM	-12.3758
tape	-12.3759
comma	-12.3759
Skill	-12.3761
9.0	-12.3761
Geom	-12.3763
▁respect	-12.3764
subscribers	-12.3767
requester	-12.3767
Hint	-12.3768
▁handles	-12.3772
machines	-12.3775
inverted	-12.3776
ads	-12.378
clamp	-12.3782
Syntax	-12.3782
SEARCH	-12.3782
ACT	-12.3783
=10):	-12.3784
gates	-12.3788
award	-12.3789
DNA	-12.379
Margin	-12.379
▁tvm	-12.379
][0])	-12.3792
DataSource	-12.3793
denominator	-12.3793
movement	-12.3795
Steps	-12.3796
totals	-12.3802
方法	-12.3802
such	-12.3803
(200)	-12.3804
rock	-12.3804
whatever	-12.3804
▁0.6	-12.3805
FI	-12.3808
3\\	-12.3813
fieldnames	-12.3819
▁faces	-12.382
('/',	-12.3821
▁implements	-12.3823
(0.5,	-12.3825
(255,	-12.3827
Waiting	-12.383
lier	-12.3831
elf	-12.3833
favorite	-12.3833
estado	-12.3834
IA	-12.3837
conference	-12.3842
sums	-12.3843
resized	-12.3844
fine	-12.3845
加	-12.3848
Zip	-12.3851
spectra	-12.3851
LP	-12.3853
▁pkt	-12.3854
Twitter	-12.3855
tutorial	-12.3855
deterministic	-12.3856
ei	-12.3856
unary	-12.3856
busy	-12.3859
(1024)	-12.3862
▁multiprocessing	-12.3862
paging	-12.3862
Gamma	-12.3864
SPEC	-12.3864
postfix	-12.3865
asdf	-12.3867
▁Constructor	-12.3868
downloads	-12.3869
TypedRuleContext	-12.387
hbox	-12.387
bk	-12.3874
+1)*	-12.3874
adapt	-12.3876
Matcher	-12.3876
错误	-12.3877
alerts	-12.3878
ente	-12.3879
cnx	-12.388
escaped	-12.3882
Priority	-12.3882
forest	-12.3883
Bitmap	-12.3883
\')[0]	-12.3883
bare	-12.3883
may	-12.3884
Lab	-12.3884
nullable	-12.3884
pil	-12.3886
trg	-12.3886
ali	-12.3886
LAST	-12.3887
▁[[0,	-12.3888
[3].	-12.3888
UM	-12.3888
analytic	-12.3892
成	-12.3894
Rel	-12.3896
▁"&	-12.3896
substring	-12.3897
▁playlist	-12.3898
PD	-12.3898
▁circuit	-12.3899
taxon	-12.3899
ра	-12.39
initiator	-12.3901
▁12)	-12.3903
paddle	-12.3904
112	-12.3905
Ansible	-12.3907
ara	-12.3909
cand	-12.3909
ComboBox	-12.391
[:,0]	-12.391
(\'\',	-12.3912
varname	-12.3913
2+	-12.3917
(404)	-12.3918
drawing	-12.3918
acct	-12.3921
regs	-12.3921
Repeat	-12.3922
}/{	-12.3925
substr	-12.3925
contributor	-12.3926
Impl	-12.3928
naive	-12.3929
Wall	-12.3929
▁paginator	-12.3929
adam	-12.3931
INSTANCE	-12.3932
Inputs	-12.3933
DetailView	-12.3935
▁randomly	-12.3937
handshake	-12.3938
▁8:	-12.3944
▁25)	-12.3946
plaintext	-12.395
fy	-12.3951
▁Cloud	-12.3951
ions	-12.3952
1\'	-12.3952
experimental	-12.3954
8.0	-12.3956
Audit	-12.396
创建	-12.3969
▁minute	-12.3969
查询	-12.3969
pixmap	-12.397
esc	-12.397
scraper	-12.3972
signatures	-12.3973
Mar	-12.3975
measures	-12.3975
Tasks	-12.3978
director	-12.3979
getToken	-12.398
ach	-12.3982
BUFFER	-12.3982
Relationship	-12.3984
ı	-12.3985
▁unused	-12.3986
▁'1',	-12.3987
fragments	-12.3989
▁ground	-12.3989
Div	-12.3991
CLOSE	-12.3991
▁digit	-12.3996
war	-12.3997
SIG	-12.3998
Temporary	-12.4001
CNN	-12.4003
trail	-12.4003
reconnect	-12.4004
flt	-12.4004
▁combine	-12.4006
测试	-12.4009
AV	-12.401
▁512,	-12.401
stale	-12.4012
ino	-12.4013
STEP	-12.4017
(0,0)	-12.4017
[:,1]	-12.4018
▁arbitrary	-12.4018
comps	-12.4018
-5)	-12.4019
ratios	-12.4019
Pitch	-12.4019
Ring	-12.402
energies	-12.4022
coor	-12.4024
▁scenario	-12.4026
cmake	-12.4028
Lists	-12.4029
SEC	-12.4032
trap	-12.4038
RESET	-12.4039
persons	-12.4041
+"\\	-12.4041
ramp	-12.4042
avi	-12.4043
Music	-12.4045
Related	-12.4046
platforms	-12.4047
kin	-12.4047
till	-12.4047
▁leaf	-12.405
▁7:	-12.4051
▁material	-12.4052
codon	-12.4052
}\')	-12.4055
Reduce	-12.4057
EXP	-12.4057
(.*)	-12.4059
goals	-12.406
mom	-12.4063
ard	-12.4063
Try	-12.4064
Cube	-12.4064
▁versionadded	-12.4064
▁#####	-12.4065
tro	-12.4068
%3	-12.4069
Inventory	-12.407
oracle	-12.407
])))	-12.4073
addons	-12.4074
tes	-12.4074
▁corner	-12.4077
timestamps	-12.4081
WORD	-12.4083
memcache	-12.4083
Watch	-12.4085
HDF	-12.4086
▁printed	-12.4087
ita	-12.4088
MaxPool	-12.4088
▁confirm	-12.4091
▁exact	-12.4091
▁probabilities	-12.4091
▁Iterable	-12.4091
aka	-12.4092
euler	-12.4092
gu	-12.4093
dif	-12.4094
stopwords	-12.4095
Provide	-12.4095
TestModel	-12.4097
102	-12.4098
执行	-12.4098
=0.5)	-12.4102
▁residual	-12.4103
tiff	-12.4105
该	-12.4108
fromtimestamp	-12.4109
=32,	-12.4113
*\\	-12.4114
invitation	-12.4114
=[0,	-12.4117
$",	-12.4121
2011	-12.4121
Flatten	-12.4124
playback	-12.4125
1_2	-12.4126
10**	-12.4127
')],	-12.4128
defaultdict	-12.413
ndims	-12.413
▁together	-12.413
Patient	-12.4136
Sizer	-12.4136
▁tensors	-12.4137
PCA	-12.4137
9]	-12.4137
Vars	-12.414
4\',	-12.414
Focus	-12.414
▁comma	-12.4141
flavors	-12.4141
AE	-12.4142
bow	-12.4144
▁Auto	-12.4144
0],	-12.4145
BP	-12.4149
manufacturer	-12.415
▁convolution	-12.4155
operating	-12.4155
jj	-12.4156
broken	-12.4156
ZipFile	-12.4158
Recipe	-12.4158
(2),	-12.4161
prototype	-12.4163
音	-12.4165
([('	-12.4169
Matches	-12.417
lifetime	-12.4171
nbr	-12.4172
▁Generates	-12.4172
Bio	-12.4175
▁FileNotFound	-12.4175
SYSTEM	-12.4177
inlineCallbacks	-12.4177
excluded	-12.4178
Cert	-12.4179
Executor	-12.4179
{'	-12.4181
Iterable	-12.4182
Getting	-12.4183
Compare	-12.4184
UDP	-12.4185
nare	-12.4189
▁measurement	-12.4193
reporting	-12.4194
▁far	-12.4196
toc	-12.4197
UInt	-12.4198
DN	-12.4198
trailer	-12.4199
ElementTree	-12.4202
▁2.0,	-12.4204
lesson	-12.4206
化	-12.4206
deb	-12.4209
密码	-12.4209
venue	-12.421
getName	-12.421
[\'--	-12.421
Mozilla	-12.4212
stash	-12.4213
\'^	-12.4213
Calculate	-12.4214
▁covariance	-12.4215
burn	-12.4215
doctype	-12.4216
▁obtain	-12.4216
ario	-12.4217
sequential	-12.4218
\')),	-12.4219
GREEN	-12.4219
affinity	-12.4222
▁combination	-12.4225
▁180	-12.4225
Based	-12.4227
▁Wait	-12.4228
['--	-12.4228
2\']	-12.4229
/",	-12.4229
PK	-12.4231
-0.5	-12.4232
subgraph	-12.4234
replies	-12.4239
enums	-12.424
dont	-12.4241
eve	-12.4244
unexpected	-12.4245
170	-12.4245
▁spatial	-12.4245
Safe	-12.4246
nreturns	-12.4246
384	-12.4247
sns	-12.425
Logic	-12.425
情	-12.4251
▁di	-12.4251
SKIP	-12.4252
integers	-12.4252
Za	-12.4254
INIT	-12.4255
subTest	-12.4256
hf	-12.4257
VI	-12.4259
Already	-12.426
▁marked	-12.426
rtol	-12.426
stand	-12.4262
Too	-12.4264
01\\	-12.4264
pids	-12.4265
页	-12.4266
Ship	-12.4266
impact	-12.4266
usable	-12.4268
cad	-12.4269
(4):	-12.4274
grouped	-12.4275
revisions	-12.4276
@@	-12.4277
30,	-12.4278
CU	-12.4279
Goal	-12.4281
newlines	-12.4285
clauses	-12.4287
▁"*"	-12.4287
unquote	-12.4288
Simulation	-12.4289
atan	-12.429
-------	-12.429
▁removing	-12.429
RpcRequest	-12.429
ATT	-12.4293
REGEX	-12.4293
>`\	-12.4294
QUIT	-12.4295
Direct	-12.4295
hal	-12.4298
arp	-12.4301
100.0	-12.4301
▁buttons	-12.4305
ley	-12.4306
▁[0	-12.4306
mutable	-12.4306
Java	-12.4306
}')	-12.4307
menubar	-12.4308
addCallback	-12.4308
pump	-12.4308
▁predicate	-12.4311
MENU	-12.4312
Scenario	-12.4315
concrete	-12.4315
GR	-12.4319
rain	-12.432
aria	-12.432
▁sg	-12.4322
-16	-12.4323
▁\'=\',	-12.4324
ging	-12.4327
▁normalization	-12.4328
▁skipped	-12.4329
actors	-12.4332
Ask	-12.4332
ade	-12.4334
▁though	-12.4334
tfidf	-12.4335
{:.2	-12.4335
▁Replace	-12.4337
Specific	-12.4337
wk	-12.4338
unsubscribe	-12.4338
更新	-12.4339
▁debugging	-12.4341
OPT	-12.4343
JOIN	-12.4346
▁TABLE	-12.4346
Unauthorized	-12.4348
ables	-12.4349
semantic	-12.435
Todo	-12.435
Motor	-12.4351
variation	-12.4352
tagger	-12.4353
deactivate	-12.4357
关	-12.4358
▁recipe	-12.436
latency	-12.4361
occurrence	-12.4362
PNG	-12.4363
aire	-12.4363
See	-12.4366
bird	-12.4366
mandatory	-12.4368
LOAD	-12.437
NETWORK	-12.4371
uploaded	-12.4372
longest	-12.4372
Rename	-12.4372
internet	-12.4372
tiny	-12.4374
MAIL	-12.4374
+1:]	-12.4376
Hub	-12.4376
ordinal	-12.4377
heatmap	-12.4381
次	-12.4381
▁webdriver	-12.4384
bytecode	-12.4385
▁Iterate	-12.4385
MASK	-12.4385
▁\'</	-12.4386
jenkins	-12.4386
qualified	-12.4386
NM	-12.4389
frequencies	-12.4389
Assert	-12.4397
san	-12.4399
4],	-12.4402
ships	-12.4403
IMG	-12.4404
ingredient	-12.4405
▁fastbinary	-12.4408
APIView	-12.4409
Figure	-12.4411
phys	-12.4413
weeks	-12.4413
-05	-12.4414
=6)	-12.4414
'}}	-12.4415
VS	-12.4417
coo	-12.4418
▁uploaded	-12.442
▁AS	-12.4422
(50)	-12.4423
burst	-12.4424
50,	-12.4425
▁Register	-12.4426
▁integration	-12.4428
▁fragment	-12.4428
SystemExit	-12.4429
BaseModel	-12.4429
Raster	-12.4431
▁criterion	-12.4432
Undefined	-12.4433
生成	-12.4433
accumulator	-12.4435
forces	-12.4436
ox	-12.4439
Deleted	-12.444
unread	-12.444
profiler	-12.4443
("{0}	-12.4444
▁exchange	-12.4444
▁BY	-12.4445
blast	-12.4446
+1])	-12.4446
cumsum	-12.4452
addLayout	-12.4453
osc	-12.4454
320	-12.4458
May	-12.4459
CAP	-12.446
setStyleSheet	-12.446
Put	-12.4463
][0],	-12.4464
删除	-12.4465
Hit	-12.4465
spi	-12.4465
procs	-12.4466
254	-12.4466
HASH	-12.4466
contain	-12.4467
comboBox	-12.4467
▁equation	-12.4468
agreement	-12.4469
problems	-12.4469
▁Draw	-12.4469
necessary	-12.447
-30	-12.447
applied	-12.4472
ding	-12.4472
▁described	-12.4473
▁longitude	-12.4473
subj	-12.4473
released	-12.4474
acceleration	-12.4475
Scheme	-12.4478
proportion	-12.4479
reindex	-12.4479
sage	-12.448
JOB	-12.4483
pypi	-12.4485
▁odd	-12.4485
conflicts	-12.4486
ssertRaisesRegex	-12.449
HR	-12.4491
cog	-12.4492
(3))	-12.4493
▁subclasses	-12.4495
4000	-12.4495
nbe	-12.4499
corrected	-12.45
104	-12.45
▁Will	-12.4502
^3	-12.4503
implemented	-12.4504
made	-12.4504
provision	-12.4506
follower	-12.4511
-02	-12.4515
stu	-12.4516
▁keras	-12.4516
从	-12.4517
gru	-12.4518
chmod	-12.4519
transparent	-12.4519
▁xbmc	-12.452
coupon	-12.4521
XXX	-12.4521
▁migration	-12.4521
Am	-12.4521
acceptable	-12.4521
Mongo	-12.4523
YES	-12.4528
▁identify	-12.4529
1/2	-12.4532
noun	-12.4533
approval	-12.4534
bom	-12.4534
[{	-12.4539
▁compiler	-12.454
Layers	-12.4543
facecolor	-12.4545
Clean	-12.4546
WHERE	-12.4547
▁TClist	-12.4547
▁attack	-12.4553
tal	-12.4554
Tri	-12.4555
▁sw	-12.4555
365	-12.4559
Good	-12.4559
sockets	-12.456
Fact	-12.4561
▁0.25	-12.4561
=\'/	-12.4564
termination	-12.4566
Logs	-12.4567
disconnected	-12.4567
AG	-12.4568
Attention	-12.457
rus	-12.4571
Cut	-12.4572
succ	-12.4574
(1000)	-12.4574
sending	-12.4576
▁QMessageBox	-12.4578
neo	-12.4578
▁paper	-12.4579
▁reduction	-12.4579
suggest	-12.4581
club	-12.4582
systems	-12.4586
forced	-12.4586
headline	-12.4586
colon	-12.4586
Candidate	-12.4587
▁swap	-12.4588
Del	-12.4589
mot	-12.4589
deque	-12.459
Requires	-12.459
]]:	-12.4591
wifi	-12.4591
gens	-12.4592
rna	-12.4594
retranslateUi	-12.4597
father	-12.4597
NL	-12.4598
▁vbox	-12.4598
▁Here	-12.4599
minibatch	-12.4599
whole	-12.46
▁counters	-12.46
hx	-12.46
mnt	-12.46
//2	-12.4603
BLUE	-12.4603
▁Since	-12.4604
imported	-12.4605
Locator	-12.4606
)**2)	-12.4606
▁memo	-12.4608
KT	-12.4608
shifted	-12.461
Proc	-12.461
Special	-12.4613
mismatch	-12.4615
▁\'{"	-12.4616
RandomState	-12.4617
[1]])	-12.4618
}},	-12.462
率	-12.462
HI	-12.462
▁2.0)	-12.4621
MOVE	-12.4623
nlp	-12.4624
exponential	-12.4624
mor	-12.4624
н	-12.4624
MATCH	-12.4627
▁numerical	-12.4632
5')	-12.4633
naming	-12.4633
FORM	-12.4639
RI	-12.4639
**3	-12.4639
Vol	-12.464
ih	-12.4641
на	-12.4641
stackoverflow	-12.4642
▁GUI	-12.4643
Cl	-12.4647
mas	-12.4647
MetaData	-12.4648
prj	-12.4649
▁\'{}\'".	-12.4649
Ka	-12.465
▁opened	-12.4651
=10	-12.4651
Playlist	-12.4652
索	-12.4653
▁1},	-12.4654
Buttons	-12.4655
inches	-12.4655
easy	-12.4656
others	-12.4658
autocomplete	-12.4658
vnf	-12.466
[2]]	-12.4662
localize	-12.4662
uniq	-12.4664
▁'0	-12.4665
blockchain	-12.4665
▁sense	-12.4666
lk	-12.4667
"\',	-12.4668
▁vocabulary	-12.467
▁products	-12.4671
登录	-12.4673
SPEED	-12.4673
ants	-12.4673
WM	-12.4674
▁[[1,	-12.4675
Fe	-12.4676
Abs	-12.4676
▁tested	-12.4677
Parallel	-12.4681
Runtime	-12.4682
derived	-12.4682
allele	-12.4682
maintenance	-12.4683
Revision	-12.4684
▁bm	-12.4688
Arn	-12.4688
▁addition	-12.4693
*2	-12.4694
Avg	-12.4694
visualize	-12.4694
waveform	-12.47
.*?	-12.4701
cds	-12.4701
CreateModel	-12.4702
▁adj	-12.4703
234	-12.4703
请	-12.4703
exon	-12.4704
oci	-12.4705
={}".	-12.4705
auction	-12.4707
calculator	-12.4707
Attempt	-12.4707
量	-12.4709
accession	-12.471
\\""	-12.4711
LOCATION	-12.4714
Episode	-12.4717
TRUE	-12.4717
DAY	-12.4721
▁confidence	-12.4723
mongodb	-12.4724
Saving	-12.4727
▁floats	-12.4731
="#	-12.4731
highest	-12.4732
\'$	-12.4734
▁detection	-12.4734
unchanged	-12.4734
bal	-12.4738
Learning	-12.4738
Tweet	-12.4738
levelname	-12.4739
▁descriptor	-12.4739
PUBLIC	-12.4741
Strip	-12.4741
Rep	-12.4744
▁market	-12.4744
PATCH	-12.4744
▁datatype	-12.4744
▁occurs	-12.4746
parsers	-12.4747
ResNet	-12.4749
Finder	-12.475
abcd	-12.4752
(\'#	-12.4753
controllers	-12.4756
switches	-12.4759
Edges	-12.476
▁frozenset	-12.476
Quota	-12.4761
tried	-12.4762
▁moment	-12.4762
routers	-12.4766
Grad	-12.4766
DONE	-12.4766
concentration	-12.4768
bol	-12.4769
EmailField	-12.477
ification	-12.4774
▁fin	-12.4775
landmarks	-12.4776
hypervisor	-12.4778
ovs	-12.4779
recently	-12.478
▁alphabet	-12.478
recovery	-12.4781
tle	-12.4781
+\')	-12.4781
▁Computes	-12.4781
kr	-12.4784
WSGI	-12.4785
可以	-12.4785
capital	-12.4785
1'),	-12.4786
vms	-12.4786
▁xmax	-12.4786
cropped	-12.4788
PATTERN	-12.4791
0.01	-12.4793
\\\\\\\\	-12.4794
CFG	-12.4796
Upgrade	-12.4796
Thing	-12.4797
▁Question	-12.4799
SCRIPT	-12.4799
reminder	-12.4801
RFC	-12.4802
overlapping	-12.4803
intermediate	-12.4803
FB	-12.4805
▁belongs	-12.4805
Both	-12.4809
▁entered	-12.4811
regional	-12.4812
▁closing	-12.4812
gdb	-12.4814
=8)	-12.4815
turtle	-12.4817
Smart	-12.4818
最	-12.4819
+")	-12.4821
Bottom	-12.4822
supervisor	-12.4829
subsample	-12.483
CHANGE	-12.483
CHANNEL	-12.4831
Bearer	-12.4832
asctime	-12.4833
▁geom	-12.4834
()[0])	-12.4837
redo	-12.4838
coro	-12.4838
PROP	-12.4841
Tax	-12.4844
▁'':	-12.4846
=128,	-12.4846
Saver	-12.4849
LU	-12.4849
InstanceId	-12.485
testapp	-12.4852
chunksize	-12.4854
getValue	-12.4855
▁regions	-12.4855
sure	-12.4858
^{	-12.4858
ö	-12.4863
ст	-12.4863
albums	-12.4864
▁0.2,	-12.4866
/4	-12.4871
Visitor	-12.4875
upsample	-12.4876
(16)	-12.4878
Src	-12.4878
descriptions	-12.4878
little	-12.488
▁attachment	-12.488
Services	-12.4881
invalidate	-12.4883
analytics	-12.4883
convolution	-12.4884
ceph	-12.4885
8:	-12.4886
▁regression	-12.4886
retain	-12.4887
-03	-12.4888
▁'0'	-12.489
Numbers	-12.4891
Inf	-12.4891
▁polynomial	-12.4891
ч	-12.4892
6:	-12.4894
Alarm	-12.4894
buttonBox	-12.4896
normalizer	-12.4897
SCALE	-12.4897
uf	-12.4897
KL	-12.4897
couple	-12.4898
trades	-12.4898
▁upon	-12.4898
attached	-12.4899
-->	-12.4899
claims	-12.4899
slugify	-12.49
authority	-12.49
trash	-12.49
Wiki	-12.4904
gauge	-12.4912
curl	-12.4914
=\'\'):	-12.4914
Lu	-12.4916
за	-12.4917
Scroll	-12.4917
keypoints	-12.4918
)==	-12.4919
milliseconds	-12.492
hang	-12.4921
Receive	-12.4922
Closed	-12.4922
WIN	-12.4924
checking	-12.4924
▁onto	-12.4925
▁URLs	-12.4926
230	-12.4926
propagation	-12.4928
STORE	-12.4929
▁5.0	-12.4929
▁deque	-12.493
▁tqdm	-12.4931
eol	-12.4931
▁trial	-12.4932
▁dilation	-12.4933
spikes	-12.4934
添加	-12.4934
messaging	-12.4934
Leaf	-12.4936
▁adapter	-12.494
▁Execute	-12.494
2)]	-12.4942
450	-12.4942
expectation	-12.4944
Desktop	-12.4945
Span	-12.4945
kde	-12.4946
reflection	-12.4947
▁neighbors	-12.4948
rat	-12.4948
WebSocket	-12.4949
locks	-12.4952
▁tol	-12.4953
Org	-12.4953
ICON	-12.4955
StatusCode	-12.4955
svd	-12.4957
▁localctx	-12.4958
1000,	-12.4962
▁4])	-12.4965
retval	-12.4966
silent	-12.4972
STATIC	-12.4972
▁Random	-12.4973
immediate	-12.4975
▁obtained	-12.4975
DIM	-12.4975
Deck	-12.4976
Orientation	-12.4976
▁1.5	-12.4977
alternative	-12.4978
detections	-12.498
▁moved	-12.498
cha	-12.4983
▁verbosity	-12.4984
itr	-12.4984
archived	-12.4985
▁trailing	-12.4985
"}}	-12.4986
visualization	-12.4986
PARAM	-12.4987
ENABLED	-12.4987
solar	-12.4988
▁explicit	-12.4991
▁404)	-12.4992
mmap	-12.4995
Human	-12.4997
uninstall	-12.4997
[:1]	-12.5
bottle	-12.5001
nYou	-12.5001
lowercase	-12.5002
boundaries	-12.5005
Preview	-12.5006
多	-12.5007
600,	-12.5008
▁aspect	-12.501
solved	-12.5011
Mini	-12.5013
playbook	-12.5013
3\')	-12.5014
bay	-12.5014
BN	-12.5015
▁momentum	-12.5016
\']}	-12.5016
linewidth	-12.5017
documentation	-12.5017
Flat	-12.5018
▁nodeName	-12.5019
▁`~	-12.5019
Saved	-12.5021
addrs	-12.5022
121	-12.5024
decrease	-12.5024
Rotate	-12.5025
shrink	-12.503
STDOUT	-12.5031
Wave	-12.5032
Coords	-12.5033
ious	-12.5033
guarantee	-12.5035
Sent	-12.5035
Sorted	-12.5037
Coordinates	-12.5038
adjustment	-12.5038
vb	-12.5038
▁occur	-12.5039
servo	-12.5042
computed	-12.5043
▁31)	-12.5044
▁{}}	-12.5044
▁shows	-12.5048
attribs	-12.5048
▁deep	-12.5048
organism	-12.5048
Fo	-12.5049
Clip	-12.5051
wrt	-12.5052
cupy	-12.5053
sendMessage	-12.5054
开始	-12.5059
denied	-12.5059
annot	-12.5062
FULL	-12.5063
[3,	-12.5066
verifier	-12.5067
polynomial	-12.5072
Expect	-12.5072
Called	-12.5072
▁trainer	-12.5073
noop	-12.5076
binascii	-12.5076
pname	-12.5079
4/	-12.5079
PIN	-12.5079
itemgetter	-12.5081
sheets	-12.5089
ando	-12.5089
▁coefficient	-12.5089
overall	-12.5091
Allowed	-12.5092
▁intervals	-12.5092
▁patterns	-12.5094
▁pivot	-12.5096
pyramid	-12.5096
▁rid	-12.5098
存	-12.51
▁appears	-12.5101
▁slim	-12.5102
+"/	-12.5105
[0]])	-12.5106
SDL	-12.5106
HIGH	-12.5108
ré	-12.5108
unc	-12.5108
protection	-12.5108
=1.0)	-12.511
\'",	-12.511
▁benchmark	-12.5112
▁purposes	-12.5115
GF	-12.5116
Ar	-12.5116
Extract	-12.5117
Blocks	-12.5118
▁percentage	-12.5123
gdal	-12.5127
[1]*	-12.5129
pwm	-12.5129
ados	-12.5132
tank	-12.5133
Qgs	-12.5134
wid	-12.5134
▁interest	-12.5136
[0,1]	-12.5139
Creator	-12.5139
▁Calculates	-12.514
Ca	-12.5142
adm	-12.5142
surname	-12.5143
+0	-12.5143
Prime	-12.5144
parameterized	-12.5146
hull	-12.5148
payments	-12.5151
Exec	-12.5152
["--	-12.5152
DOM	-12.5153
strat	-12.5153
sphinx	-12.5153
SHORT	-12.5153
moments	-12.5156
inclusive	-12.5157
Translate	-12.5157
nice	-12.5158
fetcher	-12.516
▁people	-12.5162
firstname	-12.5162
▁twice	-12.5163
HAS	-12.5163
nDo	-12.5163
!\'	-12.5164
";	-12.517
▁backref	-12.5171
Implementation	-12.5172
getAll	-12.5172
Cr	-12.5173
▁'0001_	-12.5174
ava	-12.5175
▁40,	-12.5175
1>	-12.5176
hora	-12.5178
<%	-12.518
gpus	-12.518
merchant	-12.5181
([[0,	-12.5182
sens	-12.5183
MIME	-12.5184
4}	-12.5185
BD	-12.5187
residuals	-12.5187
Viewer	-12.5188
1000000	-12.5188
TX	-12.519
▁defining	-12.5191
Channels	-12.5195
▁describing	-12.5195
decompress	-12.5196
spotify	-12.5196
PB	-12.5197
▁IPv	-12.5197
▁changing	-12.5198
nhttps	-12.5199
))])	-12.5201
▁separated	-12.5202
▁holds	-12.5206
▁wall	-12.5206
pile	-12.5206
=(3,	-12.5209
Once	-12.5209
Toggle	-12.521
▁secondary	-12.5211
alphas	-12.5212
completer	-12.5212
loglevel	-12.5212
astro	-12.5212
=2):	-12.5214
目	-12.5215
posting	-12.5215
[1]+	-12.5216
seller	-12.5217
Upper	-12.5217
Django	-12.522
emitter	-12.5222
▁receiver	-12.5223
\'%(	-12.5223
positional	-12.5223
(...)	-12.5224
intf	-12.5228
concurrent	-12.5228
Alt	-12.5228
setFont	-12.5229
lastname	-12.523
har	-12.523
strategies	-12.5231
▁pitch	-12.5233
▁5]	-12.5233
hypothesis	-12.5234
▁meaning	-12.5235
▁60,	-12.5236
mdl	-12.5238
judge	-12.5241
Pages	-12.5242
Particle	-12.5243
交	-12.5244
1}	-12.5244
prefer	-12.5245
zlib	-12.5245
▁ray	-12.5246
发	-12.5247
Behavior	-12.5248
divisor	-12.525
grow	-12.5253
Ni	-12.5255
bidirectional	-12.5256
']])	-12.5256
UC	-12.5256
Artifact	-12.5256
▁Just	-12.5257
/5.0	-12.5258
Nu	-12.5259
fillna	-12.5261
▁deviation	-12.5261
polls	-12.5261
+2]	-12.5265
unavailable	-12.5265
SAVE	-12.5265
▁inherited	-12.5266
Where	-12.5267
Arm	-12.5267
▁Web	-12.5267
lig	-12.5268
▁executor	-12.5268
▁7]	-12.527
▁sol	-12.5271
'.\	-12.5271
phases	-12.5274
launcher	-12.5275
humidity	-12.5277
SetValue	-12.5277
"]\')	-12.5278
stay	-12.5279
Sender	-12.5282
estimation	-12.5284
[:4]	-12.5284
capability	-12.5285
▁{1:	-12.5285
ROW	-12.5287
Ret	-12.5288
00:00:00	-12.5288
orange	-12.529
editing	-12.5292
Deep	-12.5292
)**	-12.5292
certificates	-12.5293
Su	-12.5294
▁100))	-12.5294
▁decide	-12.5298
Tick	-12.5298
10:	-12.5298
Sig	-12.5299
▁consistent	-12.5302
fleet	-12.5302
б	-12.5303
Lang	-12.5303
▁World	-12.5305
▁zipfile	-12.531
male	-12.531
▁#~	-12.5311
assemble	-12.5312
Rational	-12.5316
pairwise	-12.5318
bitrate	-12.5318
(":")	-12.5318
AES	-12.5318
Aggregate	-12.532
DESCRIPTION	-12.532
qry	-12.5321
halo	-12.5324
nWhen	-12.5326
α	-12.5327
marked	-12.5328
4.5	-12.5328
▁easy	-12.5329
107	-12.5329
cri	-12.5329
straight	-12.533
van	-12.5335
rounding	-12.5335
▁[0.0,	-12.5337
Regression	-12.5338
][1])	-12.534
▁instrument	-12.534
▁Go	-12.534
190	-12.5341
rescale	-12.5341
▁repeated	-12.5346
▁mime	-12.5347
elasticsearch	-12.5347
▁Article	-12.5349
pci	-12.535
Visit	-12.535
theano	-12.535
页面	-12.535
hz	-12.5351
())))	-12.5351
checkpoints	-12.5351
/10	-12.5351
0/	-12.5352
setFormatter	-12.5352
lcd	-12.5353
IG	-12.5355
jira	-12.5355
later	-12.5357
▁\'{0}\'	-12.5361
fund	-12.5363
Theme	-12.5366
103	-12.5367
nms	-12.5369
Art	-12.5369
dealer	-12.5369
3.3	-12.537
+')	-12.5371
▁season	-12.5371
35,	-12.5373
="+	-12.5375
▁accepts	-12.5375
:\\\\	-12.5378
traversal	-12.538
BG	-12.5381
OM	-12.5382
ina	-12.5383
▁trade	-12.5384
pymongo	-12.5387
anon	-12.5387
permutations	-12.5389
5))	-12.5389
▁hbox	-12.539
backups	-12.5392
rent	-12.5392
▁sound	-12.5394
已	-12.5395
▁Clear	-12.5397
withdraw	-12.5397
represented	-12.5397
locus	-12.5404
COLUMN	-12.5405
Th	-12.5411
ByName	-12.5411
▁converter	-12.5411
combination	-12.5413
walls	-12.5414
▁inference	-12.5415
tempo	-12.5418
▁sy	-12.5419
Exist	-12.5419
subtitles	-12.5421
Cur	-12.5422
apache	-12.5424
位	-12.5424
Generated	-12.5424
tangent	-12.5424
fnmatch	-12.5428
▁keepdims	-12.5429
2\':	-12.543
gist	-12.5431
uncertainty	-12.5431
Follow	-12.5437
CMS	-12.5441
Welcome	-12.5442
▁lowest	-12.5442
▁sklearn	-12.5444
Fore	-12.5444
▁identical	-12.5445
displacement	-12.5446
scenarios	-12.5447
▁2**	-12.5447
1000.0	-12.5448
tenants	-12.5448
(512,	-12.5449
outbox	-12.5449
institution	-12.5449
Clicked	-12.545
▁comm	-12.545
20.0	-12.5451
▁0.0:	-12.5452
▁grab	-12.5455
forbidden	-12.5456
GitHub	-12.5456
▁storing	-12.5457
Printer	-12.5459
measured	-12.5461
▁expressions	-12.5462
reactions	-12.5463
▁Arguments	-12.5463
▁NULL	-12.5464
1[0]	-12.5465
Indicator	-12.5467
IGNORECASE	-12.5467
readString	-12.5467
tracked	-12.5468
[1][	-12.5468
mainloop	-12.5469
务	-12.5471
galaxy	-12.5471
▁256)	-12.5471
0*	-12.5472
splitted	-12.5472
ren	-12.5473
**2))	-12.5473
*",	-12.5474
▁UI	-12.5474
extracted	-12.5474
raid	-12.5475
ition	-12.5476
LB	-12.5477
ACCOUNT	-12.5478
Partial	-12.5479
▁[1	-12.548
▁correspond	-12.5483
[0]][	-12.5484
800,	-12.5485
8),	-12.5485
caught	-12.5485
▁gap	-12.5485
CloudError	-12.5486
pyqtSlot	-12.5489
6-	-12.5489
Define	-12.5489
joints	-12.549
▁follows	-12.549
==1:	-12.5493
Detector	-12.5495
RNA	-12.5498
LONG	-12.5499
Configured	-12.55
▁estimator	-12.5501
Lexer	-12.5503
}",	-12.5503
Previous	-12.5503
starttime	-12.5507
Measurement	-12.5516
vat	-12.5517
Firefox	-12.5518
▁на	-12.5519
▁polygon	-12.552
Lat	-12.5521
▁\'"\'	-12.5522
"][0]["	-12.5524
5",	-12.5528
targ	-12.5528
conc	-12.5529
ли	-12.5535
summarize	-12.5536
logdir	-12.5538
地址	-12.554
OSError	-12.5541
Couldn	-12.5541
BT	-12.5542
Arrow	-12.5546
notation	-12.5548
SOL	-12.5549
managers	-12.5549
cartesian	-12.5551
PAD	-12.5555
未	-12.5558
bubble	-12.5558
▁grouped	-12.556
speak	-12.556
▁[(0,	-12.5561
▁reactor	-12.5561
oil	-12.5564
▁polling	-12.5565
did	-12.5571
associated	-12.5571
roman	-12.5572
▁sf	-12.5572
LOCK	-12.5572
没有	-12.5573
▁overrides	-12.5573
?',	-12.5575
lyrics	-12.5576
protect	-12.5578
包	-12.558
virtualenv	-12.558
nwill	-12.5581
credits	-12.5585
yt	-12.5585
Composite	-12.5587
Ma	-12.5588
▁shouldn	-12.5591
▁ListNode	-12.5592
TreeNode	-12.5593
▁cutoff	-12.5594
▁(1.0	-12.5595
2)\	-12.5597
Requested	-12.5597
pulumi	-12.5598
immutable	-12.5599
Finish	-12.56
/>	-12.56
▁ends	-12.5604
▁whitespace	-12.5605
CalledProcess	-12.5606
dequeue	-12.5607
▁listing	-12.5607
▁à	-12.5607
▁histogram	-12.5608
Calls	-12.561
nWe	-12.5613
milestone	-12.5615
efficient	-12.5616
instantiate	-12.5617
状态	-12.5617
Predict	-12.5618
3}	-12.5619
portion	-12.562
[:-2]	-12.5621
QAction	-12.5621
Mag	-12.5621
Seconds	-12.5624
environments	-12.5625
▁Skip	-12.5627
▁1)[0]	-12.5627
quat	-12.5627
Calc	-12.5629
RequestId	-12.563
▁0}	-12.5631
▁saver	-12.5634
datos	-12.5636
▁compatible	-12.5637
()[0].	-12.5637
copies	-12.5639
ARRAY	-12.5639
repeated	-12.5639
SN	-12.5641
Integration	-12.5642
ama	-12.5643
Joint	-12.5643
Cards	-12.5644
decorate	-12.5645
und	-12.5646
序	-12.5646
lie	-12.5646
boy	-12.5646
ет	-12.5647
0.99	-12.5648
amento	-12.5649
RAM	-12.565
▁callbacks	-12.565
uploader	-12.5651
also	-12.5653
RGBA	-12.5657
Primary	-12.5657
jet	-12.566
btc	-12.566
合	-12.5661
dof	-12.5663
rar	-12.5665
postal	-12.5665
UR	-12.5666
ante	-12.5669
""")	-12.5669
zfill	-12.5672
trie	-12.5676
Conflict	-12.5679
EDIT	-12.5683
fuzz	-12.5683
Grab	-12.5683
complement	-12.5687
х	-12.5687
▁Does	-12.5689
词	-12.569
00000000")	-12.569
3.2	-12.5692
","")	-12.5694
Pt	-12.5694
enumeration	-12.5698
Cu	-12.5698
1.0,	-12.5698
Frames	-12.5698
▁rendering	-12.57
Keep	-12.5703
tem	-12.5705
(30,	-12.5709
▁128	-12.5709
▁los	-12.5711
48,	-12.5711
▁populated	-12.5713
Constructor	-12.5713
gun	-12.5713
(-1	-12.5713
permute	-12.5714
("",	-12.5714
triangles	-12.5715
chess	-12.5716
StringVar	-12.5717
indentation	-12.5719
exempt	-12.572
Cast	-12.5721
Tra	-12.5722
accum	-12.5724
Started	-12.5725
Wire	-12.5727
OFFSET	-12.5728
downloaded	-12.573
(**{	-12.5731
0.05	-12.5736
bv	-12.574
EA	-12.5741
shu	-12.5742
jitter	-12.5742
Observation	-12.5742
(1.0)	-12.5744
▁authorization	-12.5747
plat	-12.5747
▁derivative	-12.5748
idade	-12.575
vmin	-12.575
▁nearest	-12.5751
▁pretrained	-12.5752
enterRule	-12.5754
Compiler	-12.5754
▁launch	-12.5755
▁thus	-12.5756
(2015,	-12.5756
来	-12.5756
▁\'+	-12.5756
Arc	-12.5758
psutil	-12.5759
▁dr	-12.576
sftp	-12.5761
fakes	-12.5761
covered	-12.5763
getpass	-12.5763
▁5],	-12.5764
▁MODIFICATIONS	-12.5765
unsigned	-12.5765
{1:	-12.5765
▁fine	-12.5767
adding	-12.5767
▁assumes	-12.5769
stone	-12.577
▁Unicode	-12.5771
CTRL	-12.5771
▁requirements	-12.5771
SMS	-12.5771
bullets	-12.5772
NumberOf	-12.5773
▁inserted	-12.5774
playlists	-12.5775
gra	-12.5779
Prediction	-12.5779
Publish	-12.578
opp	-12.578
Plus	-12.5782
FN	-12.5783
Front	-12.5785
ре	-12.5786
preserve	-12.5787
USB	-12.5789
UserName	-12.579
[:-	-12.579
compartment	-12.5791
again	-12.5792
programs	-12.5795
▁rsp	-12.5796
▁scaled	-12.5797
hmm	-12.5797
structures	-12.5798
Counts	-12.5799
contracts	-12.58
▁determined	-12.58
Fa	-12.58
delitem	-12.5802
Microsoft	-12.5802
▁sqlalchemy	-12.5805
(500,	-12.5806
HE	-12.5806
▁observations	-12.5806
00)	-12.5812
▁1)))	-12.5812
GEN	-12.5813
▁However	-12.5814
▁UserProfile	-12.5815
rise	-12.5815
600)	-12.5815
▁302)	-12.5815
▁4.0	-12.5816
▁ymax	-12.5817
leafs	-12.5818
ENDPOINT	-12.5819
する	-12.5822
sed	-12.5825
(11,	-12.5825
Air	-12.5827
acquisition	-12.5828
convergence	-12.5828
Quality	-12.5829
▁floating	-12.5833
▁overridden	-12.5834
TESTS	-12.5834
Picture	-12.5836
nets	-12.5836
pformat	-12.5837
Anchor	-12.5837
hb	-12.5838
fam	-12.5839
normals	-12.5839
waiter	-12.584
FFT	-12.5845
BL	-12.5847
synapse	-12.5847
-01-	-12.5848
ENTRY	-12.5851
fall	-12.5851
caches	-12.5858
subcommand	-12.5858
期	-12.5858
CAR	-12.5861
panels	-12.5861
ised	-12.5861
please	-12.5861
postgresql	-12.5862
ClientError	-12.5866
ü	-12.587
CONTEXT	-12.587
OB	-12.5871
skew	-12.5873
shifts	-12.5873
jack	-12.5874
successor	-12.5874
32:	-12.5875
8601	-12.5875
])]	-12.5876
oct	-12.5876
▁rval	-12.5876
Loaded	-12.5877
Vm	-12.5877
ano	-12.5877
网	-12.5877
structured	-12.5878
Coin	-12.5878
Detect	-12.5878
tableWidget	-12.588
Expand	-12.5882
▁drawing	-12.5882
ware	-12.5884
ill	-12.5884
3.1	-12.5887
inet	-12.5887
то	-12.5888
PYTHON	-12.5888
▁?,	-12.5895
RM	-12.5895
customers	-12.5898
▁objective	-12.5901
▁leading	-12.5902
4),	-12.5903
alipay	-12.5904
proposals	-12.5905
[0-9	-12.5906
720	-12.5908
stories	-12.5908
conductor	-12.5908
DISABLED	-12.5909
=7,	-12.5909
HS	-12.5909
gar	-12.5915
=""	-12.5915
quaternion	-12.5915
))[0]	-12.5917
MY	-12.5918
▁THE	-12.5918
Heat	-12.5923
bunch	-12.5923
renamed	-12.5923
▁sk	-12.5923
▁executable	-12.5924
01,	-12.5924
backoff	-12.5924
ette	-12.5924
sea	-12.5925
equipment	-12.5927
Conn	-12.5929
(10))	-12.593
xmlns	-12.5931
1"]	-12.5932
mal	-12.5932
eof	-12.5932
tube	-12.5932
moved	-12.5934
▁reduced	-12.5936
▁100.0	-12.5937
serving	-12.5937
й	-12.5938
で	-12.5939
RL	-12.594
▁broken	-12.5941
preprocessor	-12.5942
Sigma	-12.5943
pyclass	-12.5943
='%	-12.5944
1.8	-12.5944
das	-12.5947
Components	-12.5949
els	-12.5949
С	-12.5949
firefox	-12.5953
26,	-12.5955
(5):	-12.5955
sse	-12.5957
▁extended	-12.5958
ire	-12.5958
TestBase	-12.5958
HD	-12.5958
0"	-12.5958
occurrences	-12.5959
Hyper	-12.5959
calib	-12.596
▁Fetch	-12.5961
р	-12.5961
picks	-12.5963
Compose	-12.5964
▁14,	-12.5964
basicConfig	-12.5969
Membership	-12.597
Fun	-12.5971
ChoiceField	-12.5971
LANGUAGE	-12.5972
▁usually	-12.5975
Elem	-12.5976
responsible	-12.5976
chooser	-12.5978
against	-12.5978
об	-12.5979
trailing	-12.598
airflow	-12.5983
tilt	-12.5984
gle	-12.5985
00001	-12.5986
TB	-12.5988
least	-12.5993
bounce	-12.5997
▁broadcast	-12.5998
exitRule	-12.5998
Subscriber	-12.6002
thin	-12.6004
greedy	-12.6007
Spin	-12.6007
Te	-12.6007
▁encountered	-12.6007
▁truth	-12.6007
回	-12.6008
▁Then	-12.6008
Did	-12.6009
NON	-12.601
English	-12.601
birthday	-12.6013
Moves	-12.6013
TestData	-12.6017
crystal	-12.6019
1.6	-12.602
Three	-12.6022
▁routing	-12.6023
exog	-12.6025
▁'1'	-12.6026
cz	-12.6026
135	-12.6027
210	-12.6027
PENDING	-12.6028
KE	-12.6028
BOARD	-12.603
DataLoader	-12.603
Kill	-12.6031
bomb	-12.6031
openid	-12.6032
40,	-12.6037
(':')	-12.6038
~/	-12.6038
▁OAuth	-12.6039
lons	-12.6039
▁pour	-12.604
stanza	-12.6041
permanent	-12.6041
Leave	-12.6041
uppercase	-12.6045
TestSuite	-12.6045
arseTreeListener	-12.6045
exploit	-12.6045
▁1.1	-12.605
ule	-12.605
Conversion	-12.605
▁attempts	-12.6051
Pending	-12.6052
persistence	-12.6057
Attach	-12.6057
00')	-12.6059
8],	-12.606
Bridge	-12.606
▁expects	-12.606
▁longest	-12.6061
г	-12.6063
hose	-12.6063
Visual	-12.6064
decrypted	-12.6064
annotated	-12.6065
ARGS	-12.6068
factorial	-12.6069
▁CPU	-12.607
genres	-12.607
▁generating	-12.6072
▁receiving	-12.6073
dropdown	-12.6074
VOLUME	-12.6074
▁correlation	-12.6074
mq	-12.6075
Neutron	-12.6076
classifiers	-12.6077
knn	-12.6078
jsonify	-12.6078
WEB	-12.6078
setIcon	-12.6078
▁remainder	-12.6079
bla	-12.6083
nii	-12.6083
lum	-12.6085
identify	-12.6086
fip	-12.6087
POINTER	-12.6087
trick	-12.6087
[0][0])	-12.609
Ne	-12.609
assertRedirects	-12.6091
/*	-12.6092
vin	-12.6092
▁ys	-12.6095
▁website	-12.6095
NOTE	-12.6097
Tokens	-12.6097
QDialog	-12.61
RaisesRegexp	-12.6101
(12)	-12.6102
转	-12.6103
3.4	-12.6108
▁###########	-12.6109
currentText	-12.6109
▁front	-12.6111
▁operand	-12.6113
EF	-12.6115
fieldname	-12.6116
Trial	-12.6116
CARD	-12.6117
care	-12.6119
sticky	-12.6119
cant	-12.6121
passage	-12.6121
Noise	-12.6121
Glyph	-12.6122
Deployment	-12.6122
5])	-12.6123
never	-12.6123
Evaluation	-12.6123
-1][	-12.6123
Hide	-12.6124
IRC	-12.6125
Quick	-12.6126
nthis	-12.6127
Jobs	-12.6127
multiline	-12.6128
het	-12.6128
detailed	-12.6128
Combo	-12.6128
omit	-12.613
\')])	-12.6133
sut	-12.6133
DEV	-12.6137
Days	-12.6139
picked	-12.614
Ta	-12.6142
specifier	-12.6142
getattribute	-12.6144
▁applies	-12.6147
prox	-12.6149
▁roi	-12.615
cle	-12.615
[5],	-12.615
以	-12.6151
"<	-12.6153
texto	-12.6153
ン	-12.6153
BoxSizer	-12.6153
2.6	-12.6154
MULTI	-12.6156
garbage	-12.6157
ée	-12.6161
noisy	-12.6162
▁positional	-12.6163
codigo	-12.6165
▁others	-12.6165
dicom	-12.6166
▁padded	-12.6167
Ops	-12.6168
OwnerId	-12.6171
duplicated	-12.6172
tst	-12.6173
小	-12.6176
tmpfile	-12.6176
setCurrentIndex	-12.6177
▁diagonal	-12.6178
Sending	-12.6178
inferred	-12.6178
orb	-12.6179
octave	-12.618
▁instructions	-12.6185
Removed	-12.6185
nam	-12.6185
donor	-12.6186
cite	-12.6188
Comments	-12.6188
------	-12.619
▁winner	-12.6191
skipif	-12.6192
SUM	-12.6193
Reward	-12.6194
VER	-12.6196
shoot	-12.6198
▁Let	-12.6198
excludes	-12.6199
线	-12.6199
STYLE	-12.62
(0.,	-12.6203
收	-12.6203
\',\'\')	-12.6205
repeats	-12.6206
▁1\	-12.6206
(0.0)	-12.6207
ay	-12.6208
MULTILINE	-12.6208
optimal	-12.6213
▁baseline	-12.6213
?')	-12.6216
gear	-12.6217
brocade	-12.6219
调用	-12.6221
fds	-12.6221
Writing	-12.6223
overlaps	-12.6224
bump	-12.6225
TOTAL	-12.6227
toplevel	-12.6228
FIRST	-12.6231
DAG	-12.6232
▁:],	-12.6232
gly	-12.6233
zf	-12.6233
ust	-12.6233
tray	-12.6233
ula	-12.6234
▁workbook	-12.6237
produces	-12.6238
Vals	-12.6239
centerx	-12.624
Mon	-12.624
▁similarity	-12.6241
cardinality	-12.6243
ied	-12.6247
EV	-12.6249
3':	-12.625
ong	-12.625
provide	-12.625
protobuf	-12.6253
▁represented	-12.6254
Ha	-12.6254
ем	-12.6255
Completed	-12.6255
SECTION	-12.6258
SRC	-12.6259
Popup	-12.6264
otp	-12.6265
ljust	-12.6265
▁Boolean	-12.6265
ResultSet	-12.6268
drv	-12.6268
tokenized	-12.6269
▁aliases	-12.6269
▁arrayfunc	-12.6272
BACK	-12.6272
Swap	-12.6272
elo	-12.6273
’	-12.6274
obstacle	-12.6276
天	-12.6278
universal	-12.6278
scoped	-12.6278
bids	-12.6279
RDF	-12.6279
gv	-12.628
操作	-12.6282
aci	-12.6282
/3	-12.6282
Shader	-12.6283
Resolution	-12.6283
ess	-12.6284
'}]	-12.6288
Configure	-12.629
▁gain	-12.6293
primer	-12.6293
argmin	-12.6293
Inst	-12.6295
Disable	-12.6297
Wallet	-12.6298
corp	-12.6298
"|"	-12.6298
0.0001	-12.6298
2"]	-12.6299
)+'	-12.6299
optimized	-12.63
brackets	-12.6301
rew	-12.6302
restrict	-12.6303
aq	-12.6303
▁masked	-12.6305
Guest	-12.6306
fieldsets	-12.6306
CreateView	-12.6307
Without	-12.6307
Meter	-12.6308
subscribed	-12.6308
laser	-12.6308
agency	-12.6309
reps	-12.6313
Crop	-12.6314
stick	-12.6317
grids	-12.6322
{}/{}	-12.6323
▁expires	-12.6323
/1.1	-12.6323
fonts	-12.6327
▁1][	-12.6328
:`\\	-12.6328
knowledge	-12.6329
dbg	-12.6329
127.0.0.1	-12.633
postcode	-12.6332
Preferences	-12.6333
RW	-12.6333
THIS	-12.6333
▁nonlocal	-12.6334
Workspace	-12.6335
▁evaluated	-12.6335
5")	-12.6336
SIMPLE	-12.6337
STORAGE	-12.6341
held	-12.6343
lowest	-12.6344
가	-12.6345
webpage	-12.6351
▁formatting	-12.6351
Rot	-12.6351
▁expired	-12.6351
SB	-12.6355
development	-12.6357
Equals	-12.6359
geojson	-12.6361
IVE	-12.6362
mana	-12.6363
Velocity	-12.6365
▁generates	-12.6365
sorting	-12.6365
Classification	-12.6367
wires	-12.6367
`,\	-12.6369
▁pagination	-12.637
▁plotting	-12.6371
[3:]	-12.6372
cudnn	-12.6373
sketch	-12.6373
alien	-12.6374
lose	-12.6375
[1]):	-12.6377
▁opponent	-12.6378
大	-12.638
TL	-12.6381
EXISTS	-12.6382
Staff	-12.6385
IntegrityError	-12.6385
▁"*	-12.6387
earth	-12.6388
opening	-12.6389
provides	-12.6392
▁decision	-12.6392
内容	-12.6394
Ray	-12.6395
pillar	-12.6396
raised	-12.6396
Discrete	-12.6396
sip	-12.6397
Sym	-12.6397
toolkit	-12.6397
relevant	-12.6398
pyc	-12.64
▁Take	-12.6401
oz	-12.6402
Suite	-12.6402
fabric	-12.6402
が	-12.6404
mutex	-12.6407
ledger	-12.6407
Adjust	-12.6408
00"	-12.6411
▁comes	-12.6412
等	-12.6412
importance	-12.6414
datatypes	-12.6416
projected	-12.6417
imm	-12.6418
dan	-12.6418
▁imp	-12.6419
bor	-12.642
inbound	-12.6421
spl	-12.6423
▁angles	-12.6424
CELL	-12.6426
supply	-12.6426
[:5]	-12.6427
getData	-12.6428
▁observer	-12.6432
quantize	-12.6433
TypeDefinition	-12.6434
(1+	-12.6435
▁fo	-12.6437
leak	-12.6438
Ab	-12.6439
sensitivity	-12.644
SDK	-12.6442
rib	-12.6444
ス	-12.6444
isclose	-12.6445
committee	-12.6445
▁(1-	-12.6445
初始化	-12.6448
physics	-12.6448
GG	-12.6449
rects	-12.6449
▁TreeNode	-12.6452
zen	-12.6453
Under	-12.6454
'}),	-12.6455
▁think	-12.6455
公	-12.6456
cohort	-12.6456
▁tup	-12.6458
=1.0	-12.6458
revoke	-12.6458
cars	-12.646
Week	-12.646
macros	-12.6462
Defaults	-12.6464
所有	-12.6466
COMPLETE	-12.6469
▁optionally	-12.6469
Radio	-12.6474
tally	-12.6474
balanced	-12.6479
80)	-12.648
表示	-12.648
bookmarks	-12.648
Seed	-12.6481
▁globals	-12.6481
▁sl	-12.6482
▁",".	-12.6484
格式	-12.6485
Pull	-12.6485
wv	-12.6487
115	-12.6487
ora	-12.6489
shelf	-12.6489
▁cirq	-12.6492
kubernetes	-12.6492
ters	-12.6493
onnx	-12.6494
stops	-12.6494
Anim	-12.6495
▁24,	-12.6495
▁newly	-12.6497
warmup	-12.6497
getText	-12.65
soon	-12.6503
Ob	-12.6503
observable	-12.6503
ivity	-12.6505
currentIndex	-12.6505
stor	-12.6505
admins	-12.6506
▁triangle	-12.6507
moderator	-12.6509
atleast	-12.6511
33,	-12.6511
OneToOneField	-12.6512
executed	-12.6517
Beta	-12.6517
平	-12.652
PART	-12.6522
leaky	-12.6526
DEC	-12.6528
Participant	-12.6528
FALSE	-12.6528
euclidean	-12.6529
GRID	-12.6529
)-1)	-12.6532
edition	-12.6533
approve	-12.6533
Sta	-12.6536
▁typed	-12.6538
▁pyramid	-12.6538
(?:	-12.6545
derivatives	-12.6545
meal	-12.6545
▁refer	-12.6546
VO	-12.6546
(15,	-12.6548
▁alternative	-12.6548
ras	-12.6551
saving	-12.6552
▁nice	-12.6552
Mgr	-12.6552
TAB	-12.6553
Since	-12.6556
Percent	-12.6556
quadratic	-12.6557
▁crawler	-12.6558
ELEMENT	-12.656
Ready	-12.6561
How	-12.6561
semester	-12.6565
QFileDialog	-12.6565
])[0]	-12.6568
URLField	-12.6568
directives	-12.6568
▁tok	-12.6568
WAIT	-12.6568
4])	-12.6571
1[1]	-12.6573
itervalues	-12.6575
Offer	-12.6576
INTERNAL	-12.6577
GRU	-12.6578
2007	-12.6579
2.3	-12.658
iscsi	-12.658
Most	-12.6581
2():	-12.6581
▁opening	-12.6581
unordered	-12.6581
icmp	-12.6582
▁"</	-12.6583
>"""	-12.6584
ObjectId	-12.6585
▁Initializes	-12.6586
brew	-12.6587
▁128)	-12.6588
sendall	-12.6588
Enemy	-12.6589
including	-12.6589
scaffold	-12.6589
setVisible	-12.659
Compile	-12.6591
▁behaviour	-12.6591
0-	-12.6594
6',	-12.6595
▁compressed	-12.6595
equations	-12.6595
...'	-12.6596
-4)	-12.6597
ddt	-12.6597
节点	-12.6601
LeakyReLU	-12.6601
discussion	-12.6602
mess	-12.6602
(4))	-12.6603
pixbuf	-12.6603
▁preprocess	-12.6604
nil	-12.6604
Dashboard	-12.6606
neutral	-12.6607
(\':\')	-12.6607
Accelerated	-12.6609
privacy	-12.6609
cust	-12.661
italic	-12.661
bots	-12.6614
ingest	-12.6616
baseurl	-12.6616
RAW	-12.6616
Spectrum	-12.6617
Water	-12.6617
largest	-12.6621
instructor	-12.6622
ima	-12.6622
discord	-12.6622
listbox	-12.6623
Cal	-12.6624
logistic	-12.6624
(0,1)	-12.6629
Cipher	-12.663
▁compiled	-12.6631
rds	-12.6635
proposed	-12.6635
suppress	-12.6636
▁100:	-12.6637
snippets	-12.6638
▁eta	-12.6638
Food	-12.664
eh	-12.6641
dropna	-12.6642
ipaddress	-12.6642
003	-12.6644
rounded	-12.6644
▁story	-12.6645
BTC	-12.6645
/#	-12.6646
failUnless	-12.6647
ancestors	-12.6648
Corpus	-12.665
tele	-12.6651
122	-12.6652
LineEdit	-12.6653
ffmpeg	-12.6654
terrain	-12.6656
Solve	-12.6659
5}	-12.6659
▁sd	-12.666
shi	-12.666
-10-	-12.6661
Topology	-12.6662
▁les	-12.6663
==0	-12.6664
▁9:	-12.6666
coefs	-12.6667
dbapi	-12.6669
EXPECTED	-12.667
mixture	-12.6671
phrases	-12.6675
▁four	-12.6675
BaseCommand	-12.6678
Hist	-12.6678
Software	-12.6679
abbr	-12.668
lexicon	-12.668
443	-12.668
upsert	-12.6683
▁Authentication	-12.6685
Journal	-12.6687
Design	-12.669
edgecolor	-12.6692
BaseTestCase	-12.6692
EUR	-12.6692
▁arc	-12.6694
vd	-12.6695
/537.36	-12.6695
handling	-12.6697
emission	-12.6698
Para	-12.6699
=15)	-12.67
ngrams	-12.6704
Projection	-12.6704
ARG	-12.6705
Dispatch	-12.6705
aim	-12.6705
eggs	-12.6708
underline	-12.6709
suggestions	-12.6709
ifies	-12.671
2009	-12.671
Present	-12.6713
byteorder	-12.6718
imap	-12.6718
Azure	-12.6718
wal	-12.6719
▁patient	-12.672
=0))	-12.6721
failing	-12.6722
changeset	-12.6722
Cam	-12.6723
;">	-12.6723
▁spectrum	-12.6727
▁wd	-12.6728
SHOW	-12.673
▁mismatch	-12.673
ipa	-12.6731
}],	-12.6731
province	-12.6732
▁went	-12.6736
dask	-12.6736
86_64	-12.6737
▁intersection	-12.6738
▁mini	-12.6739
downloader	-12.6741
指定	-12.6741
-8\'	-12.6741
Feedback	-12.6741
listening	-12.6743
▁raster	-12.6745
equivalent	-12.6745
▁300)	-12.6748
元素	-12.6748
ew	-12.675
descending	-12.675
▁followed	-12.6752
1_0	-12.6754
Salt	-12.6755
/\\	-12.6756
sot	-12.6757
=4	-12.6757
▁PDF	-12.6759
Analyzer	-12.6759
+1)]	-12.6759
encia	-12.676
breaks	-12.6761
2.4	-12.6761
msrest	-12.6762
Bounds	-12.6764
▁1000,	-12.6765
ingredients	-12.6766
▁3):	-12.6767
+\',	-12.6767
▁removes	-12.6768
aggregated	-12.6768
charges	-12.6771
REQ	-12.6771
▁remain	-12.6771
▁physical	-12.6771
▁Book	-12.6774
INF	-12.6775
▁smallest	-12.6776
Updating	-12.6777
Parsing	-12.6778
('>	-12.6778
QFont	-12.6779
▁pseudo	-12.6779
ass	-12.6781
ride	-12.6781
▁(255,	-12.6781
Association	-12.6781
\']/	-12.6782
▁40)	-12.6782
1.7	-12.6784
RU	-12.6788
▁Azure	-12.6791
oi	-12.6791
▁Standard	-12.6792
reviewer	-12.6794
로	-12.6794
▁Generic	-12.6794
smoke	-12.6794
Gr	-12.6796
tas	-12.6796
▁360	-12.6802
Estimator	-12.6805
[2:])	-12.6805
cion	-12.6805
口	-12.6806
uploads	-12.6807
(0,0,0)	-12.6807
things	-12.6808
▁############	-12.681
tur	-12.6811
NAMESPACE	-12.6816
BIN	-12.6817
FTP	-12.6817
trig	-12.6817
▁fetched	-12.6819
▁smart	-12.6819
▁28,	-12.6822
777	-12.6823
increasing	-12.6823
Vertical	-12.6824
rmse	-12.6824
hv	-12.6827
srs	-12.6828
unpacked	-12.6829
-6)	-12.6831
scorer	-12.6833
incremental	-12.6833
▁arrow	-12.6833
ology	-12.6835
centralwidget	-12.6838
ENABLE	-12.684
от	-12.6841
ties	-12.6841
-1),	-12.6845
Em	-12.6847
SYS	-12.6848
Bulk	-12.6848
▁vmax	-12.6848
ов	-12.685
▁design	-12.685
程	-12.6851
MIB	-12.6851
observe	-12.6854
polling	-12.6855
passive	-12.6855
mountpoint	-12.6859
hdfs	-12.6859
▁deleting	-12.6862
▁fraction	-12.6862
PN	-12.6863
picker	-12.6863
[3]))	-12.6864
Grade	-12.6865
DIRECTORY	-12.6868
matic	-12.6869
issued	-12.6869
motif	-12.6869
ortho	-12.687
▁suitable	-12.687
▁gas	-12.6871
BI	-12.6871
TK	-12.6871
Ptr	-12.6872
MaxPooling	-12.6872
Pickle	-12.6874
Roles	-12.6874
amo	-12.6876
ahead	-12.6877
arxiv	-12.6877
[-1]]	-12.6878
bodies	-12.6881
remainder	-12.6882
00")	-12.6885
testdir	-12.6886
▁joint	-12.6888
heart	-12.6889
ambient	-12.6889
=500,	-12.6891
▁Flask	-12.6891
setData	-12.6891
▁...,	-12.6895
treatment	-12.6899
▁Student	-12.6899
开	-12.6902
BINARY	-12.6902
PAR	-12.6902
peptide	-12.6902
treeview	-12.6902
▁hs	-12.6904
▁txn	-12.6908
制	-12.691
creature	-12.691
ABCMeta	-12.6911
AU	-12.6911
covar	-12.6914
alignments	-12.6914
Extend	-12.6914
▁AWS	-12.6915
判断	-12.6916
atlas	-12.6918
Collision	-12.6919
recs	-12.6919
nTo	-12.6919
proper	-12.6919
gro	-12.6922
▁webpage	-12.6923
▁Override	-12.6924
organizations	-12.6925
ObjectType	-12.6928
▁modifier	-12.6929
▁Removes	-12.6931
ARM	-12.6935
▁GPU	-12.6936
leading	-12.6936
biz	-12.6937
198	-12.6937
contextlib	-12.6939
SK	-12.694
输出	-12.694
PU	-12.6941
Large	-12.6941
setUpClass	-12.6941
microsecond	-12.6942
ا	-12.6944
promote	-12.6944
▁touch	-12.6944
▁computer	-12.6946
[4,	-12.6946
querystring	-12.6947
}',	-12.6947
encodings	-12.6948
▁expanded	-12.6948
Downloading	-12.6948
Story	-12.6948
intra	-12.695
▁interpreter	-12.695
mz	-12.6951
sion	-12.6952
enterprise	-12.6952
precedence	-12.6952
CONTROL	-12.6953
TMP	-12.6954
222	-12.6955
octet	-12.6958
▁testval	-12.6962
Hour	-12.6963
crt	-12.6963
NG	-12.6964
!',	-12.6968
historical	-12.6968
Existing	-12.6968
CONNECTION	-12.697
fov	-12.697
decomposition	-12.6972
152	-12.6974
popleft	-12.6976
▁invokingState	-12.6977
gcd	-12.698
INTERVAL	-12.6982
SOCKET	-12.6982
suffixes	-12.6982
0.95	-12.6983
POOL	-12.6984
108	-12.6984
[0][2]	-12.6985
0])	-12.6986
backing	-12.6986
▁Keep	-12.6988
1():	-12.6989
(">	-12.699
coordinator	-12.699
administrator	-12.699
trusted	-12.6991
htm	-12.6993
stylesheet	-12.6993
PermissionDenied	-12.6994
▁Ignore	-12.6997
gravity	-12.7003
steam	-12.7006
Fragment	-12.7007
Transformation	-12.7007
radial	-12.7008
lik	-12.7008
▁flux	-12.7008
broad	-12.701
=15,	-12.7012
rsrc	-12.7012
taxonomy	-12.7015
QUEUE	-12.7017
{0}\'.	-12.7019
(1,1)	-12.7019
点击	-12.702
▁plots	-12.7021
dB	-12.7022
sympy	-12.7022
Beam	-12.7022
positives	-12.7023
bil	-12.7024
Iteration	-12.7024
Dispatcher	-12.7026
refine	-12.7027
Regular	-12.7028
PH	-12.7029
▁sorting	-12.7029
Roll	-12.7029
▁lhs	-12.703
▁1)),	-12.703
▁estimated	-12.7032
Tokenizer	-12.7032
chance	-12.7033
randomize	-12.7034
derive	-12.7034
▁tzinfo	-12.7035
640	-12.7035
maxint	-12.7035
连接	-12.7037
frontier	-12.7037
2020	-12.7037
dynamics	-12.7039
mentions	-12.704
descent	-12.704
{1}".	-12.7041
BuildAutomaton	-12.7041
▁tokenizer	-12.7044
1.0.0	-12.7045
Formula	-12.7046
scalars	-12.7047
DIS	-12.7048
decimals	-12.7049
Markdown	-12.7055
MAPPING	-12.7058
qi	-12.7062
FileField	-12.7063
shortest	-12.7063
▁&=	-12.7063
▁Maximum	-12.7064
LongTensor	-12.7064
2001	-12.7066
retention	-12.7066
lifecycle	-12.7067
Individual	-12.7067
▁coverage	-12.7068
▁500)	-12.7068
nwhere	-12.7069
npz	-12.7069
CERT	-12.707
Benchmark	-12.7071
=0),	-12.7072
▁artifact	-12.7073
Ignore	-12.7074
Credential	-12.7077
ult	-12.7077
enemies	-12.7083
GAN	-12.7084
inbox	-12.7087
farm	-12.7087
▁reach	-12.7088
PACK	-12.7088
sOperations	-12.709
7],	-12.7091
statusbar	-12.7092
cate	-12.7093
1111	-12.7093
Delegate	-12.7096
(\'/\',	-12.7097
DISPLAY	-12.7097
nwhich	-12.7097
DELAY	-12.71
sizeof	-12.7101
124	-12.7103
▁skill	-12.7103
通	-12.7104
sponsor	-12.7104
procedure	-12.7104
rvs	-12.7104
Updates	-12.7105
())[0]	-12.7105
QPixmap	-12.711
▁literal	-12.711
listOf	-12.7111
beg	-12.7112
UD	-12.7113
SecurityGroup	-12.7115
cot	-12.7115
▁phrase	-12.7116
pubsub	-12.7117
families	-12.7117
plans	-12.7118
regressor	-12.7118
abilities	-12.7121
socks	-12.7122
Disposition	-12.7122
wake	-12.7122
-08	-12.7124
▁indexing	-12.7125
aio	-12.7125
OW	-12.7126
▁vim	-12.7126
▁Updates	-12.7126
Bug	-12.7128
ibm	-12.7129
▁But	-12.7129
WA	-12.713
▁shortcut	-12.7132
▁''))	-12.7132
QDialogButtonBox	-12.7135
Cond	-12.7135
GRAY	-12.7136
▁gradients	-12.7137
▁translated	-12.714
27,	-12.714
newer	-12.7141
happy	-12.7141
▁importlib	-12.7144
iser	-12.7147
utt	-12.7149
contribution	-12.7149
DataRequired	-12.715
▁years	-12.7151
发送	-12.7152
Magic	-12.7152
PROFILE	-12.7153
kf	-12.7156
6*	-12.7157
iation	-12.7158
neighborhood	-12.716
adjacent	-12.7161
recognize	-12.7162
▁TTransport	-12.7162
]]]	-12.7163
...",	-12.7164
Ipv	-12.7164
HO	-12.7165
facets	-12.7165
▁converts	-12.7165
('-')	-12.7165
doesnt	-12.7168
Manifest	-12.7169
记录	-12.7169
Tenant	-12.7169
spreadsheet	-12.7171
psd	-12.7172
('_')	-12.7174
▁rx	-12.7175
0.03	-12.7177
ome	-12.7178
Supported	-12.7178
utter	-12.7179
▁quick	-12.7183
▁\'_\'	-12.7184
▁matter	-12.7187
lda	-12.7187
Requirement	-12.7188
workload	-12.7188
SGD	-12.719
lh	-12.7191
RemoveField	-12.7191
soap	-12.7193
Drag	-12.7193
gigabitethernet	-12.7195
▁simulate	-12.7195
▁periods	-12.7195
tone	-12.7199
Comm	-12.72
nReferences	-12.7202
▁configparser	-12.7203
mh	-12.7203
▁bash	-12.7203
StreamHandler	-12.7203
Verification	-12.7203
/{}	-12.7206
ero	-12.7207
Guide	-12.7208
REDIS	-12.7209
▁little	-12.721
Spatial	-12.7212
(*[	-12.7214
144	-12.7216
Density	-12.7216
='\\	-12.7217
CLASSES	-12.7218
Populate	-12.7218
▁cy	-12.7219
12)	-12.722
\'>	-12.7221
\\033[	-12.7223
ignoring	-12.7225
2[0]	-12.7227
NF	-12.7228
combobox	-12.7228
subclasses	-12.7229
▁toggle	-12.7229
UserProfile	-12.723
IPAddress	-12.723
debugger	-12.723
poi	-12.7232
getElementsByTag	-12.7233
Ho	-12.7235
announce	-12.7236
>/<	-12.7237
Histogram	-12.7238
▁appended	-12.7244
craft	-12.7244
Cy	-12.7245
Always	-12.7247
nINPUT	-12.7247
nominal	-12.7247
Cpu	-12.725
gca	-12.7251
其	-12.7252
▁0)]	-12.7252
Don	-12.7253
20000	-12.7254
▁hyper	-12.7257
gcc	-12.7257
subparser	-12.7258
▁readonly	-12.7262
▁intended	-12.7265
QObject	-12.7267
commission	-12.7267
▁`%	-12.7268
cdn	-12.7269
Sc	-12.7269
Bob	-12.7271
sizePolicy	-12.7271
falcon	-12.7273
ata	-12.7275
glyphs	-12.7275
JWT	-12.7276
azimuth	-12.7276
Subnet	-12.7276
да	-12.7277
▁excluded	-12.7277
HW	-12.7278
る	-12.728
▁Roman	-12.7281
[1]['	-12.7281
▁damage	-12.7282
CANCEL	-12.7283
▁How	-12.7284
CheckBox	-12.7284
Sh	-12.7286
▁convention	-12.7287
Keras	-12.729
clicks	-12.729
Addon	-12.729
rels	-12.7291
staging	-12.7291
zoo	-12.7292
referer	-12.7294
[0]],	-12.7294
SkipTest	-12.7294
=256,	-12.7295
POLICY	-12.7299
▁deployment	-12.7299
第	-12.7299
UPLOAD	-12.73
106	-12.7303
Credit	-12.7303
argtypes	-12.7305
REGION	-12.7307
5.5	-12.7307
selectors	-12.7308
transformations	-12.7309
exceeded	-12.7309
silence	-12.7312
▁sb	-12.7313
bones	-12.7314
analyse	-12.7315
ste	-12.7316
ubuntu	-12.7316
Mobile	-12.7316
ect	-12.7317
cairo	-12.7317
foot	-12.7318
[...]
